{
  "version": "1.0",
  "truncation": null,
  "padding": null,
  "added_tokens": [
    {
      "id": 0,
      "content": "[UNK]",
      "single_word": false,
      "lstrip": false,
      "rstrip": false,
      "normalized": false,
      "special": true
    },
    {
      "id": 1,
      "content": "[PAD]",
      "single_word": false,
      "lstrip": false,
      "rstrip": false,
      "normalized": false,
      "special": true
    },
    {
      "id": 2,
      "content": "[CLS]",
      "single_word": false,
      "lstrip": false,
      "rstrip": false,
      "normalized": false,
      "special": true
    },
    {
      "id": 3,
      "content": "[SEP]",
      "single_word": false,
      "lstrip": false,
      "rstrip": false,
      "normalized": false,
      "special": true
    },
    {
      "id": 4,
      "content": "[MASK]",
      "single_word": false,
      "lstrip": false,
      "rstrip": false,
      "normalized": false,
      "special": true
    }
  ],
  "normalizer": {
    "type": "Sequence",
    "normalizers": []
  },
  "pre_tokenizer": {
    "type": "ByteLevel",
    "add_prefix_space": true,
    "trim_offsets": true,
    "use_regex": true
  },
  "post_processor": null,
  "decoder": null,
  "model": {
    "type": "BPE",
    "dropout": null,
    "unk_token": "[UNK]",
    "continuing_subword_prefix": null,
    "end_of_word_suffix": null,
    "fuse_unk": false,
    "byte_fallback": false,
    "vocab": {
      "[UNK]": 0,
      "[PAD]": 1,
      "[CLS]": 2,
      "[SEP]": 3,
      "[MASK]": 4,
      "!": 5,
      "#": 6,
      "$": 7,
      "&": 8,
      "'": 9,
      "*": 10,
      "+": 11,
      ",": 12,
      "-": 13,
      ".": 14,
      "/": 15,
      "0": 16,
      "1": 17,
      "2": 18,
      "3": 19,
      "4": 20,
      "5": 21,
      "6": 22,
      "7": 23,
      "8": 24,
      "9": 25,
      ":": 26,
      ";": 27,
      "=": 28,
      "?": 29,
      "\\": 30,
      "`": 31,
      "a": 32,
      "b": 33,
      "c": 34,
      "d": 35,
      "e": 36,
      "f": 37,
      "g": 38,
      "h": 39,
      "i": 40,
      "j": 41,
      "k": 42,
      "l": 43,
      "m": 44,
      "n": 45,
      "o": 46,
      "p": 47,
      "q": 48,
      "r": 49,
      "s": 50,
      "t": 51,
      "u": 52,
      "v": 53,
      "w": 54,
      "x": 55,
      "y": 56,
      "z": 57,
      "©": 58,
      "«": 59,
      "°": 60,
      "´": 61,
      "¸": 62,
      "½": 63,
      "¿": 64,
      "å": 65,
      "ç": 66,
      "è": 67,
      "é": 68,
      "Ġ": 69,
      "ģ": 70,
      "Ĥ": 71,
      "ħ": 72,
      "Ĩ": 73,
      "ī": 74,
      "Ĭ": 75,
      "Į": 76,
      "Ĵ": 77,
      "ĵ": 78,
      "Ļ": 79,
      "ľ": 80,
      "Ġt": 81,
      "Ġa": 82,
      "in": 83,
      "Ġth": 84,
      "Ġs": 85,
      "er": 86,
      "Ġ.": 87,
      "Ġo": 88,
      "Ġthe": 89,
      "it": 90,
      "re": 91,
      "Ġ,": 92,
      "en": 93,
      "Ġf": 94,
      "Ġm": 95,
      "is": 96,
      "Ġw": 97,
      "at": 98,
      "Ġc": 99,
      "Ġb": 100,
      "Ġan": 101,
      "es": 102,
      "ing": 103,
      "or": 104,
      "on": 105,
      "Ġp": 106,
      "ou": 107,
      "an": 108,
      "Ġh": 109,
      "Ġof": 110,
      "Ġd": 111,
      "Ġand": 112,
      "ar": 113,
      "al": 114,
      "ly": 115,
      "ed": 116,
      "Ġl": 117,
      "ic": 118,
      "il": 119,
      "Ġin": 120,
      "Ġto": 121,
      "Ġ'": 122,
      "Ġit": 123,
      "om": 124,
      "Ġn": 125,
      "Ġe": 126,
      "as": 127,
      "le": 128,
      "Ġis": 129,
      "Ġg": 130,
      "el": 131,
      "ct": 132,
      "Ġmo": 133,
      "ut": 134,
      "ent": 135,
      "ion": 136,
      "st": 137,
      "ot": 138,
      "Ġthat": 139,
      "ve": 140,
      "Ġst": 141,
      "un": 142,
      "Ġre": 143,
      "et": 144,
      "vi": 145,
      "im": 146,
      "gh": 147,
      "ra": 148,
      "ch": 149,
      "ul": 150,
      "ver": 151,
      "Ġbe": 152,
      "ro": 153,
      "Ġwh": 154,
      "Ġon": 155,
      "Ġfil": 156,
      "ce": 157,
      "Ġy": 158,
      "Ġas": 159,
      "Ġfilm": 160,
      "ith": 161,
      "Ġ-": 162,
      "ri": 163,
      "Ġwith": 164,
      "ol": 165,
      "Ġfor": 166,
      "ke": 167,
      "ay": 168,
      "ow": 169,
      "ad": 170,
      "Ġmovi": 171,
      "Ġch": 172,
      "Ġyou": 173,
      "ess": 174,
      "Ġsu": 175,
      "Ġi": 176,
      "Ġcom": 177,
      "se": 178,
      "Ġal": 179,
      "ers": 180,
      "Ġbut": 181,
      "Ġli": 182,
      "Ġmovie": 183,
      "oo": 184,
      "Ġits": 185,
      "Ġthis": 186,
      "ir": 187,
      "Ġun": 188,
      "am": 189,
      "ab": 190,
      "Ġj": 191,
      "th": 192,
      "id": 193,
      "ter": 194,
      "Ġse": 195,
      "Ġsh": 196,
      "em": 197,
      "ill": 198,
      "ag": 199,
      "um": 200,
      "us": 201,
      "est": 202,
      "Ġen": 203,
      "ur": 204,
      "Ġex": 205,
      "ght": 206,
      "ous": 207,
      "ck": 208,
      "out": 209,
      "ak": 210,
      "ld": 211,
      "Ġnot": 212,
      "Ġr": 213,
      "Ġab": 214,
      "Ġde": 215,
      "qu": 216,
      "ation": 217,
      "ist": 218,
      "ere": 219,
      "ive": 220,
      "Ġcon": 221,
      "Ġdo": 222,
      "rb": 223,
      "ant": 224,
      "ally": 225,
      "ure": 226,
      "Ġsc": 227,
      "ire": 228,
      "Ġne": 229,
      "Ġat": 230,
      "ap": 231,
      "ain": 232,
      "Ġwor": 233,
      "ell": 234,
      "Ġk": 235,
      "'t": 236,
      "..": 237,
      "Ġ...": 238,
      "ful": 239,
      "art": 240,
      "and": 241,
      "pe": 242,
      "ate": 243,
      "Ġint": 244,
      "ory": 245,
      "Ġfr": 246,
      "Ġso": 247,
      "ast": 248,
      "Ġby": 249,
      "ff": 250,
      "ity": 251,
      "ust": 252,
      "Ġone": 253,
      "able": 254,
      "ough": 255,
      "Ġha": 256,
      "Ġlike": 257,
      "act": 258,
      "Ġall": 259,
      "Ġpro": 260,
      "Ġchar": 261,
      "Ġhas": 262,
      "ig": 263,
      "Ġhe": 264,
      "Ġabout": 265,
      "ood": 266,
      "Ġsom": 267,
      "Ġ--": 268,
      "Ġmore": 269,
      "Ġare": 270,
      "Ġpl": 271,
      "Ġthan": 272,
      "Ġact": 273,
      "Ġfe": 274,
      "Ġ`": 275,
      "op": 276,
      "ight": 277,
      "de": 278,
      "ould": 279,
      "Ġfrom": 280,
      "up": 281,
      "der": 282,
      "ven": 283,
      "ort": 284,
      "Ġv": 285,
      "very": 286,
      "Ġhave": 287,
      "ss": 288,
      "ard": 289,
      "Ġsp": 290,
      "ich": 291,
      "Ġim": 292,
      "Ġpre": 293,
      "ind": 294,
      "Ġhis": 295,
      "ial": 296,
      "ud": 297,
      "ie": 298,
      "Ġper": 299,
      "Ġwho": 300,
      "pt": 301,
      "all": 302,
      "Ġstory": 303,
      "Ġor": 304,
      "Ġle": 305,
      "ack": 306,
      "itt": 307,
      "her": 308,
      "Ġlo": 309,
      "Ġcl": 310,
      "irect": 311,
      "hing": 312,
      "one": 313,
      "ence": 314,
      "Ġout": 315,
      "Ġfun": 316,
      "ect": 317,
      "Ġcharact": 318,
      "ong": 319,
      "ge": 320,
      "pl": 321,
      "oun": 322,
      "ces": 323,
      "Ġam": 324,
      "Ġman": 325,
      "Ġif": 326,
      "ake": 327,
      "per": 328,
      "ious": 329,
      "Ġfl": 330,
      "Ġno": 331,
      "ies": 332,
      "Ġdirect": 333,
      "Ġtr": 334,
      "ick": 335,
      "rrb": 336,
      "lrb": 337,
      "Ġmost": 338,
      "ult": 339,
      "ime": 340,
      "ble": 341,
      "man": 342,
      "ine": 343,
      "Ġwe": 344,
      "ram": 345,
      "Ġpo": 346,
      "Ġup": 347,
      "are": 348,
      "Ġqu": 349,
      "for": 350,
      "ves": 351,
      "Ġar": 352,
      "Ġwhat": 353,
      "au": 354,
      "Ġad": 355,
      "Ġjust": 356,
      "reat": 357,
      "Ġtoo": 358,
      "og": 359,
      "Ġthere": 360,
      "ary": 361,
      "Ġinto": 362,
      "Ġany": 363,
      "Ġvi": 364,
      "Ġcomed": 365,
      "ook": 366,
      "ert": 367,
      "Ġwork": 368,
      "ict": 369,
      "Ġthr": 370,
      "end": 371,
      "Ġcomp": 372,
      "Ġsome": 373,
      "Ġro": 374,
      "our": 375,
      "ish": 376,
      "Ġwill": 377,
      "Ġgood": 378,
      "Ġdoes": 379,
      "ny": 380,
      "Ġent": 381,
      "od": 382,
      "ep": 383,
      "ment": 384,
      "Ġbl": 385,
      "ise": 386,
      "ore": 387,
      "Ġus": 388,
      "Ġeven": 389,
      "com": 390,
      "ite": 391,
      "Ġcan": 392,
      "ical": 393,
      "os": 394,
      "Ġmu": 395,
      "Ġhum": 396,
      "oy": 397,
      "Ġoff": 398,
      "akes": 399,
      "ac": 400,
      "ear": 401,
      "age": 402,
      "Ġcomedy": 403,
      "ating": 404,
      "Ġfeel": 405,
      "ark": 406,
      "ass": 407,
      "Ġover": 408,
      "atch": 409,
      "ue": 410,
      "ile": 411,
      "Ġperfor": 412,
      "ens": 413,
      "elf": 414,
      "Ġ``": 415,
      "Ġmuch": 416,
      "Ġ''": 417,
      "Ġem": 418,
      "pp": 419,
      "Ġdis": 420,
      "ry": 421,
      "we": 422,
      "Ġtime": 423,
      "reen": 424,
      "Ġway": 425,
      "Ġsl": 426,
      "Ġbet": 427,
      "Ġcharacters": 428,
      "rit": 429,
      "iz": 430,
      "ound": 431,
      "ertain": 432,
      "Ġperforman": 433,
      "fe": 434,
      "ip": 435,
      "Ġevery": 436,
      "ice": 437,
      "ull": 438,
      "Ġwell": 439,
      "ingly": 440,
      "Ġdes": 441,
      "Ġra": 442,
      "Ġfa": 443,
      "Ġfunny": 444,
      "ving": 445,
      "wn": 446,
      "Ġtheir": 447,
      "ated": 448,
      "Ġme": 449,
      "ative": 450,
      "ade": 451,
      "ittle": 452,
      "Ġtw": 453,
      "Ġlook": 454,
      "Ġyour": 455,
      "Ġdirector": 456,
      "Ġlittle": 457,
      "ph": 458,
      "Ġri": 459,
      "ense": 460,
      "Ġsub": 461,
      "Ġsm": 462,
      "Ġdram": 463,
      "Ġimp": 464,
      "less": 465,
      "ily": 466,
      "ual": 467,
      "Ġgen": 468,
      "Ġsomet": 469,
      "int": 470,
      "Ġreal": 471,
      "own": 472,
      "pect": 473,
      "Ġlove": 474,
      "ress": 475,
      "Ġgo": 476,
      "Ġonly": 477,
      "Ġsur": 478,
      "Ġnever": 479,
      "ings": 480,
      "Ġinter": 481,
      "Ġthey": 482,
      "ale": 483,
      "ach": 484,
      "cc": 485,
      "ness": 486,
      "Ġbad": 487,
      "ans": 488,
      "Ġdel": 489,
      "ience": 490,
      "Ġmay": 491,
      "Ġins": 492,
      "ther": 493,
      "Ġmake": 494,
      "ance": 495,
      "Ġher": 496,
      "Ġbr": 497,
      "Ġend": 498,
      "vent": 499,
      "Ġhol": 500,
      "Ġget": 501,
      "Ġrem": 502,
      "vel": 503,
      "ren": 504,
      "Ġwatch": 505,
      "Ġwhich": 506,
      "Ġseem": 507,
      "ling": 508,
      "sh": 509,
      "aking": 510,
      "ber": 511,
      "ose": 512,
      "Ġser": 513,
      "ath": 514,
      "Ġscreen": 515,
      "Ġwas": 516,
      "ions": 517,
      "Ġbeen": 518,
      "Ġvery": 519,
      "Ġwould": 520,
      "Ġthem": 521,
      "Ġmakes": 522,
      "Ġstr": 523,
      "atic": 524,
      "ft": 525,
      "ne": 526,
      "Ġte": 527,
      "Ġcont": 528,
      "Ġthrough": 529,
      "oc": 530,
      "ash": 531,
      "Ġlife": 532,
      "Ġenough": 533,
      "ang": 534,
      "Ġhow": 535,
      "Ġunder": 536,
      "Ġnew": 537,
      "ately": 538,
      "Ġmat": 539,
      "Ġsee": 540,
      "get": 541,
      "ost": 542,
      "Ġag": 543,
      "Ġcol": 544,
      "ame": 545,
      "fully": 546,
      "Ġentertain": 547,
      "ris": 548,
      "Ġrom": 549,
      "Ġbest": 550,
      "ild": 551,
      "oth": 552,
      "Ġtra": 553,
      "Ġfam": 554,
      "Ġplot": 555,
      "ors": 556,
      "ably": 557,
      "Ġpe": 558,
      "Ġyear": 559,
      "ew": 560,
      "Ġaud": 561,
      "ink": 562,
      "vers": 563,
      "Ġwhen": 564,
      "Ġart": 565,
      "Ġmovies": 566,
      "ually": 567,
      "Ġres": 568,
      "Ġheart": 569,
      "ved": 570,
      "ays": 571,
      "urn": 572,
      "Ġvis": 573,
      "Ġcould": 574,
      "Ġpart": 575,
      "Ġother": 576,
      "ond": 577,
      "Ġwhile": 578,
      "Ġ1": 579,
      "Ġcin": 580,
      "Ġpr": 581,
      "Ġeff": 582,
      "Ġdrama": 583,
      "Ġgr": 584,
      "leas": 585,
      "ional": 586,
      "ism": 587,
      "Ġcast": 588,
      "ents": 589,
      "Ġaction": 590,
      "Ġmy": 591,
      "Ġwar": 592,
      "Ġsomething": 593,
      "Ġcinem": 594,
      "Ġmade": 595,
      "Ġfre": 596,
      "ign": 597,
      "aut": 598,
      "ian": 599,
      "ject": 600,
      "eric": 601,
      "Ġhard": 602,
      "Ġlong": 603,
      "Ġreally": 604,
      "app": 605,
      "so": 606,
      "Ġcr": 607,
      "Ġgreat": 608,
      "rig": 609,
      "Ġshould": 610,
      "Ġatt": 611,
      "ace": 612,
      "Ġ:": 613,
      "Ġsim": 614,
      "Ġmin": 615,
      "ible": 616,
      "Ġaf": 617,
      "Ġgi": 618,
      "ute": 619,
      "Ġinterest": 620,
      "ty": 621,
      "Ġbig": 622,
      "Ġfilmm": 623,
      "elling": 624,
      "cial": 625,
      "ting": 626,
      "Ġaw": 627,
      "augh": 628,
      "Ġhumor": 629,
      "Ġtwo": 630,
      "iv": 631,
      "igh": 632,
      "uct": 633,
      "Ġown": 634,
      "Ġfir": 635,
      "Ġjo": 636,
      "Ġperformances": 637,
      "Ġob": 638,
      "imes": 639,
      "ci": 640,
      "mer": 641,
      "ying": 642,
      "Ġdown": 643,
      "ower": 644,
      "Ġnothing": 645,
      "Ġcharacter": 646,
      "Ġmany": 647,
      "Ġbetter": 648,
      "aw": 649,
      "les": 650,
      "inal": 651,
      "Ġfilms": 652,
      "ide": 653,
      "Ġtri": 654,
      "Ġwithout": 655,
      "ument": 656,
      "Ġcre": 657,
      "ations": 658,
      "istic": 659,
      "fic": 660,
      "ten": 661,
      "ug": 662,
      "Ġboth": 663,
      "ript": 664,
      "Ġshow": 665,
      "ause": 666,
      "Ġke": 667,
      "Ġkn": 668,
      "Ġpeop": 669,
      "Ġfirst": 670,
      "led": 671,
      "Ġcle": 672,
      "Ġlaugh": 673,
      "Ġthrill": 674,
      "Ġpeople": 675,
      "li": 676,
      "other": 677,
      "row": 678,
      "Ġscript": 679,
      "Ġter": 680,
      "Ġever": 681,
      "Ġdoc": 682,
      "ock": 683,
      "Ġthose": 684,
      "ature": 685,
      "Ġinc": 686,
      "cept": 687,
      "ll": 688,
      "sc": 689,
      "arly": 690,
      "Ġstill": 691,
      "Ġbeaut": 692,
      "Ġscen": 693,
      "Ġimag": 694,
      "Ġsurp": 695,
      "ning": 696,
      "Ġ?": 697,
      "Ġbel": 698,
      "umb": 699,
      "Ġdocument": 700,
      "Ġeng": 701,
      "joy": 702,
      "te": 703,
      "Ġspe": 704,
      "Ġdi": 705,
      "Ġsuch": 706,
      "Ġenjoy": 707,
      "Ġold": 708,
      "ib": 709,
      "Ġalso": 710,
      "Ġkid": 711,
      "Ġemot": 712,
      "Ġsense": 713,
      "Ġco": 714,
      "Ġgu": 715,
      "old": 716,
      "wood": 717,
      "Ġless": 718,
      "Ġexc": 719,
      "Ġworth": 720,
      "Ġkind": 721,
      "ks": 722,
      "ins": 723,
      "Ġmom": 724,
      "Ġoften": 725,
      "Ġrec": 726,
      "icture": 727,
      "Ġhuman": 728,
      "Ġafter": 729,
      "sy": 730,
      "Ġsat": 731,
      "Ġfar": 732,
      "Ġpicture": 733,
      "Ġbeing": 734,
      "Ġpret": 735,
      "Ġap": 736,
      "Ġself": 737,
      "iss": 738,
      "ars": 739,
      "Ġaudience": 740,
      "ree": 741,
      "Ġback": 742,
      "Ġhigh": 743,
      "Ġlack": 744,
      "utes": 745,
      "Ġbec": 746,
      "Ġameric": 747,
      "Ġview": 748,
      "Ġset": 749,
      "Ġmight": 750,
      "Ġcap": 751,
      "ought": 752,
      "Ġhere": 753,
      "Ġrel": 754,
      "thing": 755,
      "Ġworld": 756,
      "Ġcharm": 757,
      "ky": 758,
      "ather": 759,
      "Ġbecause": 760,
      "az": 761,
      "Ġult": 762,
      "Ġpleas": 763,
      "Ġsty": 764,
      "Ġide": 765,
      "ced": 766,
      "Ġfind": 767,
      "Ġcar": 768,
      "lywood": 769,
      "Ġgl": 770,
      "vid": 771,
      "Ġcomple": 772,
      "ts": 773,
      "Ġtal": 774,
      "Ġapp": 775,
      "Ġperformance": 776,
      "Ġseems": 777,
      "ination": 778,
      "Ġsch": 779,
      "its": 780,
      "Ġph": 781,
      "Ġunf": 782,
      "Ġcons": 783,
      "Ġplay": 784,
      "Ġsk": 785,
      "antic": 786,
      "Ġfeels": 787,
      "Ġknow": 788,
      "Ġsurpris": 789,
      "Ġultim": 790,
      "Ġthough": 791,
      "ences": 792,
      "Ġcare": 793,
      "Ġpower": 794,
      "arr": 795,
      "Ġel": 796,
      "Ġdep": 797,
      "Ġneed": 798,
      "ween": 799,
      "Ġtale": 800,
      "Ġturn": 801,
      "Ġwrit": 802,
      "Ġanother": 803,
      "Ġhist": 804,
      "aster": 805,
      "Ġche": 806,
      "Ġpoint": 807,
      "Ġhollywood": 808,
      "Ġentertaining": 809,
      "Ġminutes": 810,
      "Ġbeauti": 811,
      "dict": 812,
      "ner": 813,
      "Ġswe": 814,
      "Ġmus": 815,
      "ates": 816,
      "Ġpers": 817,
      "ross": 818,
      "Ġbetween": 819,
      "Ġdocumentary": 820,
      "Ġexper": 821,
      "Ġfew": 822,
      "av": 823,
      "uff": 824,
      "Ġthing": 825,
      "Ġwom": 826,
      "Ġwere": 827,
      "Ġwant": 828,
      "Ġcra": 829,
      "Ġpie": 830,
      "Ġext": 831,
      "Ġ;": 832,
      "Ġes": 833,
      "Ġthink": 834,
      "Ġmar": 835,
      "onder": 836,
      "Ġir": 837,
      "Ġclich": 838,
      "ney": 839,
      "Ġfilmmak": 840,
      "Ġthriller": 841,
      "most": 842,
      "Ġhor": 843,
      "Ġlot": 844,
      "Ġind": 845,
      "ome": 846,
      "Ġgra": 847,
      "Ġfamily": 848,
      "Ġkeep": 849,
      "Ġtake": 850,
      "Ġca": 851,
      "Ġcreat": 852,
      "Ġbro": 853,
      "ons": 854,
      "Ġrun": 855,
      "Ġagain": 856,
      "Ġromantic": 857,
      "ward": 858,
      "Ġthese": 859,
      "ater": 860,
      "ord": 861,
      "Ġhim": 862,
      "olog": 863,
      "Ġcomes": 864,
      "Ġacting": 865,
      "Ġdeli": 866,
      "Ġwatching": 867,
      "Ġsimp": 868,
      "Ġ2": 869,
      "Ġfull": 870,
      "ically": 871,
      "Ġinst": 872,
      "Ġeas": 873,
      "ster": 874,
      "Ġalmost": 875,
      "Ġshe": 876,
      "\\/": 877,
      "be": 878,
      "ger": 879,
      "Ġed": 880,
      "iness": 881,
      "Ġsin": 882,
      "Ġpol": 883,
      "ane": 884,
      "Ġhour": 885,
      "Ġbef": 886,
      "Ġbecom": 887,
      "Ġlea": 888,
      "cess": 889,
      "dd": 890,
      "Ġac": 891,
      "Ġorig": 892,
      "Ġmess": 893,
      "Ġdra": 894,
      "asc": 895,
      "Ġform": 896,
      "Ġsequ": 897,
      "Ġquite": 898,
      "Ġdesp": 899,
      "Ġeffect": 900,
      "ail": 901,
      "dit": 902,
      "ged": 903,
      "king": 904,
      "ently": 905,
      "ount": 906,
      "Ġoriginal": 907,
      "ia": 908,
      "Ġsol": 909,
      "arn": 910,
      "ics": 911,
      "Ġref": 912,
      "Ġyet": 913,
      "irl": 914,
      "Ġsex": 915,
      "Ġexpl": 916,
      "ures": 917,
      "ellig": 918,
      "Ġintellig": 919,
      "Ġinteresting": 920,
      "Ġultimately": 921,
      "ub": 922,
      "read": 923,
      "ream": 924,
      "Ġmor": 925,
      "Ġho": 926,
      "Ġrep": 927,
      "Ġwhere": 928,
      "Ġcome": 929,
      "Ġitself": 930,
      "Ġseen": 931,
      "Ġrather": 932,
      "Ġactors": 933,
      "ogue": 934,
      "Ġmater": 935,
      "Ġsweet": 936,
      "Ġbefore": 937,
      "uck": 938,
      "vin": 939,
      "xt": 940,
      "èĮ": 941,
      "Ġthings": 942,
      "Ġmem": 943,
      "Ġhal": 944,
      "Ġhad": 945,
      "Ġdial": 946,
      "Ġele": 947,
      "eless": 948,
      "Ġste": 949,
      "ages": 950,
      "Ġspir": 951,
      "Ġright": 952,
      "Ġamerican": 953,
      "ier": 954,
      "wh": 955,
      "Ġaff": 956,
      "Ġbit": 957,
      "Ġport": 958,
      "ouch": 959,
      "Ġyoun": 960,
      "Ġworks": 961,
      "Ġappe": 962,
      "Ġmi": 963,
      "Ġanim": 964,
      "Ġdist": 965,
      "ility": 966,
      "ason": 967,
      "Ġstud": 968,
      "ously": 969,
      "Ġdec": 970,
      "play": 971,
      "Ġmoments": 972,
      "Ġmaterial": 973,
      "Ġdialogue": 974,
      "fect": 975,
      "Ġtouch": 976,
      "Ġsw": 977,
      "erg": 978,
      "ering": 979,
      "Ġfasc": 980,
      "Ġwonder": 981,
      "Ġpain": 982,
      "Ġsuper": 983,
      "Ġsubject": 984,
      "Ġperson": 985,
      "air": 986,
      "sp": 987,
      "ys": 988,
      "Ġ!": 989,
      "Ġz": 990,
      "Ġcult": 991,
      "ange": 992,
      "Ġonce": 993,
      "ired": 994,
      "Ġprod": 995,
      "èĮħ": 996,
      "vo": 997,
      "Ġpass": 998,
      "Ġhand": 999,
      "Ġdem": 1000,
      "ract": 1001,
      "empt": 1002,
      "Ġdeep": 1003,
      "Ġflick": 1004,
      "Ġrare": 1005,
      "cing": 1006,
      "fi": 1007,
      "Ġthought": 1008,
      "Ġsit": 1009,
      "Ġcam": 1010,
      "Ġdet": 1011,
      "Ġdark": 1012,
      "icul": 1013,
      "Ġchild": 1014,
      "Ġcinema": 1015,
      "Ġportra": 1016,
      "Ġfascin": 1017,
      "of": 1018,
      "vol": 1019,
      "res": 1020,
      "Ġfri": 1021,
      "Ġmel": 1022,
      "Ġmind": 1023,
      "Ġmaking": 1024,
      "ionally": 1025,
      "ush": 1026,
      "Ġabs": 1027,
      "Ġconf": 1028,
      "Ġyears": 1029,
      "Ġvisual": 1030,
      "Ġscenes": 1031,
      "Ġbelie": 1032,
      "Ġdespite": 1033,
      "Ġhalf": 1034,
      "Ġyoung": 1035,
      "con": 1036,
      "Ġour": 1037,
      "Ġfin": 1038,
      "Ġwit": 1039,
      "Ġput": 1040,
      "str": 1041,
      "Ġstart": 1042,
      "Ġstand": 1043,
      "Ġsum": 1044,
      "Ġkids": 1045,
      "Ġmusic": 1046,
      "day": 1047,
      "iet": 1048,
      "Ġtakes": 1049,
      "Ġacc": 1050,
      "Ġsay": 1051,
      "Ġthen": 1052,
      "Ġdull": 1053,
      "ither": 1054,
      "Ġune": 1055,
      "Ġfeature": 1056,
      "Ġleast": 1057,
      "Ġcompelling": 1058,
      "Ġspecial": 1059,
      "cy": 1060,
      "ues": 1061,
      "Ġsens": 1062,
      "Ġmon": 1063,
      "Ġmaster": 1064,
      "Ġbu": 1065,
      "als": 1066,
      "Ġgive": 1067,
      "Ġret": 1068,
      "Ġwhy": 1069,
      "Ġass": 1070,
      "ains": 1071,
      "aren": 1072,
      "Ġgener": 1073,
      "Ġgets": 1074,
      "Ġterri": 1075,
      "Ġdiff": 1076,
      "Ġcapt": 1077,
      "Ġspirit": 1078,
      "Ġfascinating": 1079,
      "iar": 1080,
      "ms": 1081,
      "min": 1082,
      "Ġtit": 1083,
      "Ġsad": 1084,
      "Ġwr": 1085,
      "ality": 1086,
      "que": 1087,
      "Ġclass": 1088,
      "Ġdirection": 1089,
      "Ġsmart": 1090,
      "ship": 1091,
      "Ġgives": 1092,
      "sych": 1093,
      "kes": 1094,
      "me": 1095,
      "Ġsou": 1096,
      "era": 1097,
      "Ġbar": 1098,
      "Ġpsych": 1099,
      "Ġgirl": 1100,
      "raph": 1101,
      "Ġlight": 1102,
      "Ġsec": 1103,
      "Ġfail": 1104,
      "Ġgoing": 1105,
      "Ġclever": 1106,
      "ead": 1107,
      "Ġmed": 1108,
      "isf": 1109,
      "Ġbo": 1110,
      "Ġhar": 1111,
      "Ġhapp": 1112,
      "Ġdid": 1113,
      "ilar": 1114,
      "Ġnarr": 1115,
      "ase": 1116,
      "Ġmoving": 1117,
      "iment": 1118,
      "ider": 1119,
      "Ġpredict": 1120,
      "Ġoffers": 1121,
      "Ġpiece": 1122,
      "ds": 1123,
      "Ġtimes": 1124,
      "Ġlast": 1125,
      "Ġshort": 1126,
      "antly": 1127,
      "Ġproble": 1128,
      "Ġfamil": 1129,
      "Ġeffort": 1130,
      "son": 1131,
      "ines": 1132,
      "Ġsil": 1133,
      "itive": 1134,
      "Ġmid": 1135,
      "orn": 1136,
      "Ġlow": 1137,
      "Ġey": 1138,
      "lect": 1139,
      "using": 1140,
      "Ġexp": 1141,
      "Ġdelight": 1142,
      "Ġwriter": 1143,
      "Ġexperience": 1144,
      "tle": 1145,
      "Ġma": 1146,
      "Ġevent": 1147,
      "Ġstra": 1148,
      "vious": 1149,
      "Ġsure": 1150,
      "Ġcomic": 1151,
      "Ġexpect": 1152,
      "Ġtrans": 1153,
      "ograph": 1154,
      "Ġsometimes": 1155,
      "Ġ19": 1156,
      "Ġengag": 1157,
      "Ġstyle": 1158,
      "cer": 1159,
      "ool": 1160,
      "ror": 1161,
      "itch": 1162,
      "Ġcertain": 1163,
      "Ġtoget": 1164,
      "Ġstar": 1165,
      "opp": 1166,
      "Ġanything": 1167,
      "Ġvide": 1168,
      "Ġserious": 1169,
      "Ġhistory": 1170,
      "Ġtogether": 1171,
      "ps": 1172,
      "Ġthree": 1173,
      "Ġmr": 1174,
      "Ġbra": 1175,
      "Ġpar": 1176,
      "aling": 1177,
      "Ġep": 1178,
      "the": 1179,
      "uring": 1180,
      "Ġpres": 1181,
      "Ġperfect": 1182,
      "ends": 1183,
      "Ġrob": 1184,
      "rench": 1185,
      "Ġaway": 1186,
      "if": 1187,
      "to": 1188,
      "use": 1189,
      "Ġsame": 1190,
      "ited": 1191,
      "Ġhon": 1192,
      "Ġhel": 1193,
      "Ġsucc": 1194,
      "Ġuns": 1195,
      "Ġdef": 1196,
      "aste": 1197,
      "Ġprob": 1198,
      "ized": 1199,
      "Ġscreenplay": 1200,
      "Ġstrong": 1201,
      "Ġcinematic": 1202,
      "Ġlaughs": 1203,
      "Ġemotional": 1204,
      "Ġwomen": 1205,
      "Ġnarrative": 1206,
      "cise": 1207,
      "self": 1208,
      "Ġ9": 1209,
      "ank": 1210,
      "Ġday": 1211,
      "uth": 1212,
      "ots": 1213,
      "ceed": 1214,
      "Ġund": 1215,
      "Ġrich": 1216,
      "Ġdeb": 1217,
      "ssible": 1218,
      "Ġlead": 1219,
      "Ġmanages": 1220,
      "Ġanyone": 1221,
      "Ġimpress": 1222,
      "Ġgenre": 1223,
      "Ġentertainment": 1224,
      "Ġcomplete": 1225,
      "Ġfilmmakers": 1226,
      "Ġsince": 1227,
      "co": 1228,
      "io": 1229,
      "yp": 1230,
      "Ġsa": 1231,
      "Ġsn": 1232,
      "Ġsent": 1233,
      "iting": 1234,
      "Ġfans": 1235,
      "Ġmain": 1236,
      "Ġwo": 1237,
      "Ġpop": 1238,
      "edly": 1239,
      "Ġnow": 1240,
      "Ġmoder": 1241,
      "stand": 1242,
      "ula": 1243,
      "Ġsusp": 1244,
      "Ġcomm": 1245,
      "ists": 1246,
      "ured": 1247,
      "Ġprom": 1248,
      "Ġwarm": 1249,
      "dle": 1250,
      "ek": 1251,
      "ler": 1252,
      "Ġsy": 1253,
      "Ġodd": 1254,
      "Ġfact": 1255,
      "Ġmur": 1256,
      "Ġcall": 1257,
      "Ġdam": 1258,
      "Ġinf": 1259,
      "ows": 1260,
      "ird": 1261,
      "Ġactually": 1262,
      "itten": 1263,
      "Ġquir": 1264,
      "ody": 1265,
      "ments": 1266,
      "Ġteen": 1267,
      "Ġfresh": 1268,
      "Ġidea": 1269,
      "Ġsimply": 1270,
      "cut": 1271,
      "Ġsound": 1272,
      "Ġfol": 1273,
      "aring": 1274,
      "Ġlet": 1275,
      "ented": 1276,
      "etic": 1277,
      "ural": 1278,
      "Ġplays": 1279,
      "Ġplace": 1280,
      "Ġwhole": 1281,
      "Ġwhose": 1282,
      "Ġadvent": 1283,
      "Ġentire": 1284,
      "odram": 1285,
      "Ġfair": 1286,
      "Ġgoes": 1287,
      "Ġseries": 1288,
      "Ġattempt": 1289,
      "Ġsatisf": 1290,
      "Ġmodern": 1291,
      "Ġop": 1292,
      "red": 1293,
      "Ġfall": 1294,
      "Ġbor": 1295,
      "ories": 1296,
      "Ġpast": 1297,
      "Ġdone": 1298,
      "Ġnor": 1299,
      "Ġev": 1300,
      "unch": 1301,
      "Ġbeg": 1302,
      "Ġexer": 1303,
      "Ġhead": 1304,
      "Ġamb": 1305,
      "Ġtrue": 1306,
      "Ġinsight": 1307,
      "Ġsurprisingly": 1308,
      "Ġbeautifully": 1309,
      "Ġdrag": 1310,
      "Ġtitle": 1311,
      "Ġfamiliar": 1312,
      "cl": 1313,
      "ming": 1314,
      "writ": 1315,
      "Ġach": 1316,
      "ities": 1317,
      "ret": 1318,
      "Ġfant": 1319,
      "Ġmark": 1320,
      "Ġwal": 1321,
      "Ġcoming": 1322,
      "Ġuni": 1323,
      "Ġworst": 1324,
      "Ġflat": 1325,
      "Ġinsp": 1326,
      "Ġremark": 1327,
      "uction": 1328,
      "Ġpretty": 1329,
      "Ġinstead": 1330,
      "Ġformula": 1331,
      "Ġstudy": 1332,
      "Ġchildren": 1333,
      "Ġmelodram": 1334,
      "Ġpredictable": 1335,
      "Ġengaging": 1336,
      "Ġprobably": 1337,
      "Ġexercise": 1338,
      "br": 1339,
      "he": 1340,
      "iel": 1341,
      "mise": 1342,
      "oint": 1343,
      "uri": 1344,
      "ways": 1345,
      "zy": 1346,
      "Ġsign": 1347,
      "Ġwin": 1348,
      "Ġwild": 1349,
      "ork": 1350,
      "orge": 1351,
      "Ġda": 1352,
      "Ġequ": 1353,
      "Ġred": 1354,
      "Ġbeh": 1355,
      "Ġjack": 1356,
      "Ġenerg": 1357,
      "Ġnearly": 1358,
      "Ġpremise": 1359,
      "Ġlevel": 1360,
      "Ġaround": 1361,
      "izing": 1362,
      "Ġeverything": 1363,
      "Ġsmall": 1364,
      "Ġdramatic": 1365,
      "Ġmatter": 1366,
      "version": 1367,
      "Ġenjoyable": 1368,
      "Ġpolit": 1369,
      "Ġbecomes": 1370,
      "Ġsolid": 1371,
      "Ġvideo": 1372,
      "Ġsuspense": 1373,
      "iences": 1374,
      "lish": 1375,
      "oot": 1376,
      "Ġpur": 1377,
      "ention": 1378,
      "Ġreason": 1379,
      "Ġsuff": 1380,
      "sem": 1381,
      "Ġintrig": 1382,
      "ustr": 1383,
      "Ġprof": 1384,
      "ortun": 1385,
      "Ġflaw": 1386,
      "Ġtrying": 1387,
      "ults": 1388,
      "come": 1389,
      "Ġcontri": 1390,
      "Ġfilmmaking": 1391,
      "Ġbeautiful": 1392,
      "Ġportrait": 1393,
      "Ġhonest": 1394,
      "Ġsentiment": 1395,
      "ific": 1396,
      "ked": 1397,
      "line": 1398,
      "ned": 1399,
      "ric": 1400,
      "Ġtreat": 1401,
      "Ġoper": 1402,
      "Ġfine": 1403,
      "Ġmag": 1404,
      "Ġang": 1405,
      "Ġlar": 1406,
      "Ġine": 1407,
      "Ġearn": 1408,
      "otic": 1409,
      "ung": 1410,
      "Ġalways": 1411,
      "oof": 1412,
      "illi": 1413,
      "Ġdead": 1414,
      "Ġstoryt": 1415,
      "Ġquiet": 1416,
      "Ġadm": 1417,
      "iction": 1418,
      "Ġparticul": 1419,
      "Ġcomplex": 1420,
      "Ġhorror": 1421,
      "Ġdiffer": 1422,
      "Ġsoul": 1423,
      "Ġpsycholog": 1424,
      "Ġsuccess": 1425,
      "00": 1426,
      "by": 1427,
      "ding": 1428,
      "direct": 1429,
      "Ġill": 1430,
      "Ġmust": 1431,
      "Ġmiss": 1432,
      "Ġbri": 1433,
      "Ġboy": 1434,
      "Ġdr": 1435,
      "Ġgri": 1436,
      "Ġstuff": 1437,
      "ett": 1438,
      "ether": 1439,
      "itting": 1440,
      "Ġfeeling": 1441,
      "Ġslow": 1442,
      "Ġhero": 1443,
      "Ġobs": 1444,
      "like": 1445,
      "Ġpowerful": 1446,
      "Ġproblem": 1447,
      "Ġsilly": 1448,
      "Ġenergy": 1449,
      "gr": 1450,
      "hn": 1451,
      "ted": 1452,
      "vis": 1453,
      "Ġur": 1454,
      "ined": 1455,
      "Ġsing": 1456,
      "Ġmis": 1457,
      "Ġmich": 1458,
      "Ġhome": 1459,
      "Ġstri": 1460,
      "Ġread": 1461,
      "rop": 1462,
      "Ġlive": 1463,
      "Ġexam": 1464,
      "ational": 1465,
      "Ġamusing": 1466,
      "Ġquest": 1467,
      "Ġrock": 1468,
      "Ġslight": 1469,
      "Ġface": 1470,
      "Ġmean": 1471,
      "Ġlooks": 1472,
      "Ġlooking": 1473,
      "Ġending": 1474,
      "Ġromance": 1475,
      "Ġcharming": 1476,
      "Ġsequel": 1477,
      "Ġsummer": 1478,
      "Ġcertainly": 1479,
      "Ġquirky": 1480,
      "cent": 1481,
      "cap": 1482,
      "med": 1483,
      "ove": 1484,
      "ple": 1485,
      "Ġocc": 1486,
      "ition": 1487,
      "ening": 1488,
      "Ġfrench": 1489,
      "Ġmen": 1490,
      "Ġwa": 1491,
      "Ġcut": 1492,
      "ont": 1493,
      "Ġhilar": 1494,
      "Ġdream": 1495,
      "elt": 1496,
      "Ġsupp": 1497,
      "Ġalth": 1498,
      "used": 1499,
      "peci": 1500,
      "Ġval": 1501,
      "Ġviol": 1502,
      "ize": 1503,
      "Ġdeser": 1504,
      "fted": 1505,
      "ashion": 1506,
      "ĠclichèĮħ": 1507,
      "Ġeffects": 1508,
      "Ġstorytelling": 1509,
      "director": 1510,
      "Ġalthough": 1511,
      "no": 1512,
      "pro": 1513,
      "uing": 1514,
      "uly": 1515,
      "ude": 1516,
      "Ġtone": 1517,
      "erv": 1518,
      "eng": 1519,
      "Ġcent": 1520,
      "Ġbas": 1521,
      "Ġeach": 1522,
      "Ġreg": 1523,
      "Ġid": 1524,
      "Ġexcept": 1525,
      "Ġdev": 1526,
      "ively": 1527,
      "aps": 1528,
      "Ġproject": 1529,
      "Ġeveryone": 1530,
      "Ġlacks": 1531,
      "Ġturns": 1532,
      "Ġespeci": 1533,
      "Ġintelligent": 1534,
      "Ġaffect": 1535,
      "Ġdeeply": 1536,
      "Ġdebut": 1537,
      "Ġespecially": 1538,
      "ever": 1539,
      "lin": 1540,
      "ton": 1541,
      "time": 1542,
      "uine": 1543,
      "Ġtv": 1544,
      "Ġtheater": 1545,
      "Ġmet": 1546,
      "Ġwind": 1547,
      "Ġbre": 1548,
      "Ġben": 1549,
      "Ġbook": 1550,
      "ese": 1551,
      "Ġpa": 1552,
      "Ġmot": 1553,
      "Ġdeath": 1554,
      "Ġconvin": 1555,
      "Ġdog": 1556,
      "Ġlikely": 1557,
      "allow": 1558,
      "Ġdirected": 1559,
      "aced": 1560,
      "Ġbrilli": 1561,
      "Ġunderstand": 1562,
      "Ġjohn": 1563,
      "Ġelse": 1564,
      "Ġextre": 1565,
      "Ġeasy": 1566,
      "Ġhours": 1567,
      "Ġculture": 1568,
      "Ġmiddle": 1569,
      "low": 1570,
      "yond": 1571,
      "Ġtell": 1572,
      "Ġsand": 1573,
      "Ġsort": 1574,
      "Ġspect": 1575,
      "ery": 1576,
      "itation": 1577,
      "Ġhu": 1578,
      "Ġder": 1579,
      "Ġtop": 1580,
      "Ġnice": 1581,
      "entious": 1582,
      "Ġreve": 1583,
      "Ġforget": 1584,
      "Ġcomb": 1585,
      "ember": 1586,
      "Ġabove": 1587,
      "Ġproves": 1588,
      "plic": 1589,
      "Ġweird": 1590,
      "Ġblack": 1591,
      "ored": 1592,
      "velop": 1593,
      "Ġstrange": 1594,
      "Ġmyster": 1595,
      "Ġrecent": 1596,
      "Ġleave": 1597,
      "dition": 1598,
      "Ġpassion": 1599,
      "Ġsitu": 1600,
      "Ġbelieve": 1601,
      "Ġfails": 1602,
      "Ġcompletely": 1603,
      "ax": 1604,
      "ael": 1605,
      "ecut": 1606,
      "go": 1607,
      "hy": 1608,
      "mo": 1609,
      "off": 1610,
      "path": 1611,
      "sel": 1612,
      "Ġversion": 1613,
      "Ġtre": 1614,
      "Ġfour": 1615,
      "ony": 1616,
      "Ġpat": 1617,
      "Ġpot": 1618,
      "Ġhop": 1619,
      "Ġdou": 1620,
      "utter": 1621,
      "ote": 1622,
      "und": 1623,
      "Ġrest": 1624,
      "Ġbeyond": 1625,
      "Ġlives": 1626,
      "ams": 1627,
      "Ġjour": 1628,
      "ationship": 1629,
      "Ġactor": 1630,
      "Ġtruly": 1631,
      "ended": 1632,
      "ension": 1633,
      "Ġdisapp": 1634,
      "Ġgenuine": 1635,
      "Ġdelic": 1636,
      "Ġobvious": 1637,
      "Ġtries": 1638,
      "Ġshows": 1639,
      "Ġrelationship": 1640,
      "Ġideas": 1641,
      "Ġwoman": 1642,
      "Ġfilmmaker": 1643,
      "Ġintelligence": 1644,
      "Ġcamera": 1645,
      "Ġdetail": 1646,
      "Ġstraight": 1647,
      "Ġdefin": 1648,
      "Ġfantas": 1649,
      "Ġopera": 1650,
      "Ġhilarious": 1651,
      "Ġopp": 1652,
      "Ġtheat": 1653,
      "Ġfan": 1654,
      "orable": 1655,
      "ances": 1656,
      "Ġdumb": 1657,
      "Ġinvol": 1658,
      "Ġnon": 1659,
      "Ġgot": 1660,
      "Ġgrow": 1661,
      "Ġstories": 1662,
      "Ġalong": 1663,
      "Ġalread": 1664,
      "tern": 1665,
      "Ġshot": 1666,
      "aged": 1667,
      "ires": 1668,
      "Ġneither": 1669,
      "Ġemb": 1670,
      "Ġride": 1671,
      "berg": 1672,
      "Ġcold": 1673,
      "Ġaudiences": 1674,
      "ugg": 1675,
      "Ġmix": 1676,
      "Ġunex": 1677,
      "arent": 1678,
      "Ġterrific": 1679,
      "Ġhelp": 1680,
      "Ġsym": 1681,
      "Ġadventure": 1682,
      "Ġboring": 1683,
      "Ġdisappoint": 1684,
      "Ġalready": 1685,
      "ai": 1686,
      "dy": 1687,
      "pie": 1688,
      "yn": 1689,
      "Ġthor": 1690,
      "eni": 1691,
      "ising": 1692,
      "att": 1693,
      "Ġcou": 1694,
      "Ġlit": 1695,
      "Ġline": 1696,
      "ims": 1697,
      "Ġchr": 1698,
      "Ġsever": 1699,
      "Ġexecut": 1700,
      "Ġspl": 1701,
      "Ġleft": 1702,
      "itty": 1703,
      "Ġmostly": 1704,
      "Ġquick": 1705,
      "ished": 1706,
      "Ġbland": 1707,
      "comm": 1708,
      "comp": 1709,
      "osed": 1710,
      "Ġimpro": 1711,
      "lessly": 1712,
      "Ġattract": 1713,
      "Ġcreep": 1714,
      "Ġviewers": 1715,
      "Ġpleasure": 1716,
      "Ġescap": 1717,
      "Ġexplo": 1718,
      "Ġtouching": 1719,
      "void": 1720,
      "minute": 1721,
      "Ġsecond": 1722,
      "Ġrobert": 1723,
      "Ġsatisfying": 1724,
      "Ġearnest": 1725,
      "selves": 1726,
      "Ġthorough": 1727,
      "gar": 1728,
      "por": 1729,
      "Ġve": 1730,
      "Ġtar": 1731,
      "Ġair": 1732,
      "Ġsqu": 1733,
      "Ġwel": 1734,
      "Ġpay": 1735,
      "Ġpath": 1736,
      "oud": 1737,
      "Ġlat": 1738,
      "Ġlim": 1739,
      "Ġnone": 1740,
      "Ġeither": 1741,
      "enty": 1742,
      "ential": 1743,
      "Ġren": 1744,
      "chn": 1745,
      "Ġwhether": 1746,
      "urd": 1747,
      "Ġpoor": 1748,
      "Ġbring": 1749,
      "Ġtraged": 1750,
      "Ġimagine": 1751,
      "ibly": 1752,
      "Ġconsider": 1753,
      "Ġhistor": 1754,
      "Ġextra": 1755,
      "Ġagainst": 1756,
      "Ġsimple": 1757,
      "Ġeasily": 1758,
      "Ġclassic": 1759,
      "Ġachie": 1760,
      "Ġmichael": 1761,
      "Ġextreme": 1762,
      "bing": 1763,
      "cceed": 1764,
      "gu": 1765,
      "iest": 1766,
      "oon": 1767,
      "ossible": 1768,
      "Ġted": 1769,
      "Ġfat": 1770,
      "Ġfound": 1771,
      "Ġwater": 1772,
      "Ġcor": 1773,
      "Ġmood": 1774,
      "unny": 1775,
      "olute": 1776,
      "Ġsucceed": 1777,
      "ames": 1778,
      "Ġshock": 1779,
      "uss": 1780,
      "aks": 1781,
      "Ġconcept": 1782,
      "apt": 1783,
      "Ġsocial": 1784,
      "Ġactress": 1785,
      "Ġlost": 1786,
      "Ġposs": 1787,
      "Ġadd": 1788,
      "Ġsomewh": 1789,
      "Ġdesper": 1790,
      "Ġimport": 1791,
      "Ġcoll": 1792,
      "Ġcred": 1793,
      "Ġsatire": 1794,
      "Ġcheap": 1795,
      "Ġhimself": 1796,
      "Ġdeliver": 1797,
      "Ġhope": 1798,
      "Ġwonderful": 1799,
      "Ġpersonal": 1800,
      "Ġrarely": 1801,
      "Ġremarkable": 1802,
      "Ġmelodrama": 1803,
      "Ġparticularly": 1804,
      "Ġoccas": 1805,
      "Ġspectac": 1806,
      "Ġthoroughly": 1807,
      "ball": 1808,
      "ef": 1809,
      "gic": 1810,
      "ien": 1811,
      "ient": 1812,
      "land": 1813,
      "ma": 1814,
      "rise": 1815,
      "uous": 1816,
      "wr": 1817,
      "year": 1818,
      "zz": 1819,
      "Ġver": 1820,
      "Ġutter": 1821,
      "Ġast": 1822,
      "Ġsle": 1823,
      "ishing": 1824,
      "Ġcount": 1825,
      "Ġbal": 1826,
      "Ġant": 1827,
      "ones": 1828,
      "ann": 1829,
      "any": 1830,
      "Ġdri": 1831,
      "ley": 1832,
      "Ġgod": 1833,
      "ott": 1834,
      "Ġstun": 1835,
      "Ġjoy": 1836,
      "illing": 1837,
      "ags": 1838,
      "Ġende": 1839,
      "Ġdevelop": 1840,
      "Ġnext": 1841,
      "ellent": 1842,
      "Ġsoap": 1843,
      "Ġprovid": 1844,
      "Ġclose": 1845,
      "Ġfunn": 1846,
      "Ġenth": 1847,
      "Ġblood": 1848,
      "Ġways": 1849,
      "Ġslap": 1850,
      "Ġscreenwrit": 1851,
      "Ġseeing": 1852,
      "Ġgrand": 1853,
      "Ġjokes": 1854,
      "Ġscene": 1855,
      "Ġmoment": 1856,
      "Ġpretentious": 1857,
      "Ġhorri": 1858,
      "Ġdelivers": 1859,
      "Ġbecome": 1860,
      "Ġleaves": 1861,
      "Ġmessage": 1862,
      "Ġproduction": 1863,
      "Ġthoughtful": 1864,
      "Ġwritten": 1865,
      "Ġmaj": 1866,
      "ography": 1867,
      "Ġintriguing": 1868,
      "Ġlarge": 1869,
      "ban": 1870,
      "cul": 1871,
      "fort": 1872,
      "gn": 1873,
      "ring": 1874,
      "wise": 1875,
      "Ġ8": 1876,
      "Ġx": 1877,
      "Ġer": 1878,
      "Ġug": 1879,
      "inary": 1880,
      "Ġthin": 1881,
      "Ġside": 1882,
      "Ġfut": 1883,
      "Ġfig": 1884,
      "ises": 1885,
      "Ġbrit": 1886,
      "Ġhit": 1887,
      "Ġtold": 1888,
      "Ġgorge": 1889,
      "rage": 1890,
      "rown": 1891,
      "Ġsust": 1892,
      "Ġunp": 1893,
      "aph": 1894,
      "upid": 1895,
      "oney": 1896,
      "icks": 1897,
      "arely": 1898,
      "Ġvir": 1899,
      "Ġvivid": 1900,
      "Ġrole": 1901,
      "acing": 1902,
      "Ġsubst": 1903,
      "Ġsubtle": 1904,
      "Ġimpossible": 1905,
      "Ġreality": 1906,
      "Ġinside": 1907,
      "ocative": 1908,
      "Ġvision": 1909,
      "Ġvisually": 1910,
      "Ġ10": 1911,
      "ival": 1912,
      "Ġimages": 1913,
      "Ġimagination": 1914,
      "Ġengross": 1915,
      "Ġappro": 1916,
      "Ġphil": 1917,
      "avy": 1918,
      "Ġrefres": 1919,
      "Ġanimation": 1920,
      "Ġstandard": 1921,
      "Ġcontrived": 1922,
      "Ġdifferent": 1923,
      "Ġhuge": 1924,
      "Ġmystery": 1925,
      "Ġchrist": 1926,
      "Ġtedious": 1927,
      "Ġrefreshing": 1928,
      "bers": 1929,
      "ele": 1930,
      "gest": 1931,
      "ses": 1932,
      "uc": 1933,
      "Ġtired": 1934,
      "ital": 1935,
      "itious": 1936,
      "Ġfem": 1937,
      "Ġfight": 1938,
      "Ġcop": 1939,
      "Ġbur": 1940,
      "Ġbreat": 1941,
      "Ġpull": 1942,
      "ouse": 1943,
      "anch": 1944,
      "arch": 1945,
      "Ġlist": 1946,
      "Ġinvent": 1947,
      "Ġni": 1948,
      "Ġnight": 1949,
      "Ġnature": 1950,
      "Ġgent": 1951,
      "eld": 1952,
      "Ġstupid": 1953,
      "unk": 1954,
      "vie": 1955,
      "Ġii": 1956,
      "Ġunc": 1957,
      "iller": 1958,
      "Ġfrustr": 1959,
      "Ġsoph": 1960,
      "Ġspy": 1961,
      "Ġflash": 1962,
      "Ġtry": 1963,
      "Ġtruth": 1964,
      "Ġpoign": 1965,
      "Ġadapt": 1966,
      "itely": 1967,
      "Ġends": 1968,
      "Ġremains": 1969,
      "Ġthemselves": 1970,
      "Ġtechn": 1971,
      "Ġcolor": 1972,
      "Ġartist": 1973,
      "Ġgiven": 1974,
      "Ġjob": 1975,
      "Ġskill": 1976,
      "Ġdepress": 1977,
      "Ġwriting": 1978,
      "Ġcliches": 1979,
      "Ġrunning": 1980,
      "Ġsequences": 1981,
      "Ġmoral": 1982,
      "Ġmemorable": 1983,
      "Ġsteven": 1984,
      "Ġfinally": 1985,
      "Ġstarts": 1986,
      "Ġmedi": 1987,
      "Ġeyes": 1988,
      "Ġevents": 1989,
      "Ġepis": 1990,
      "Ġ90": 1991,
      "Ġentirely": 1992,
      "Ġfairly": 1993,
      "Ġpurp": 1994,
      "Ġpsychological": 1995,
      "ashioned": 1996,
      "Ġunexpect": 1997,
      "Ġengrossing": 1998,
      "Ġapproach": 1999,
      "bt": 2000,
      "gent": 2001,
      "hand": 2002,
      "ially": 2003,
      "ob": 2004,
      "spect": 2005,
      "ze": 2006,
      "Ġess": 2007,
      "Ġtest": 2008,
      "Ġtaste": 2009,
      "Ġsor": 2010,
      "Ġosc": 2011,
      "Ġfram": 2012,
      "Ġmer": 2013,
      "Ġcur": 2014,
      "Ġcrit": 2015,
      "onic": 2016,
      "Ġdan": 2017,
      "arp": 2018,
      "Ġlab": 2019,
      "Ġland": 2020,
      "Ġinde": 2021,
      "Ġnat": 2022,
      "Ġear": 2023,
      "Ġge": 2024,
      "Ġgang": 2025,
      "els": 2026,
      "Ġstep": 2027,
      "ular": 2028,
      "Ġforg": 2029,
      "key": 2030,
      "Ġcho": 2031,
      "Ġunb": 2032,
      "amp": 2033,
      "ability": 2034,
      "ump": 2035,
      "usion": 2036,
      "ands": 2037,
      "astic": 2038,
      "Ġhaving": 2039,
      "Ġprocess": 2040,
      "Ġheavy": 2041,
      "Ġcomedies": 2042,
      "Ġroad": 2043,
      "Ġusual": 2044,
      "ensive": 2045,
      "Ġdisney": 2046,
      "Ġfav": 2047,
      "Ġtwist": 2048,
      "Ġremember": 2049,
      "Ġcontem": 2050,
      "Ġotherwise": 2051,
      "Ġcrime": 2052,
      "Ġclear": 2053,
      "Ġincl": 2054,
      "Ġemotionally": 2055,
      "Ġexcellent": 2056,
      "Ġviewer": 2057,
      "Ġsurprising": 2058,
      "arents": 2059,
      "Ġcaptures": 2060,
      "Ġwrong": 2061,
      "ielberg": 2062,
      "Ġsentimental": 2063,
      "Ġviolence": 2064,
      "Ġbrilliant": 2065,
      "Ġjourney": 2066,
      "piece": 2067,
      "Ġhistorical": 2068,
      "olutely": 2069,
      "een": 2070,
      "fashioned": 2071,
      "gy": 2072,
      "ging": 2073,
      "hood": 2074,
      "iod": 2075,
      "ov": 2076,
      "vable": 2077,
      "war": 2078,
      "way": 2079,
      "Ġthrow": 2080,
      "ered": 2081,
      "rew": 2082,
      "Ġfire": 2083,
      "Ġmere": 2084,
      "ised": 2085,
      "Ġwood": 2086,
      "ats": 2087,
      "atory": 2088,
      "Ġcross": 2089,
      "Ġcase": 2090,
      "Ġcele": 2091,
      "Ġpow": 2092,
      "Ġpure": 2093,
      "Ġpark": 2094,
      "Ġparents": 2095,
      "Ġhy": 2096,
      "Ġdig": 2097,
      "Ġdays": 2098,
      "ilty": 2099,
      "Ġinv": 2100,
      "let": 2101,
      "Ġgone": 2102,
      "Ġgreen": 2103,
      "Ġgags": 2104,
      "Ġmove": 2105,
      "ution": 2106,
      "ets": 2107,
      "Ġyork": 2108,
      "rid": 2109,
      "Ġforce": 2110,
      "Ġchange": 2111,
      "Ġunt": 2112,
      "ides": 2113,
      "ident": 2114,
      "Ġsharp": 2115,
      "Ġexist": 2116,
      "Ġable": 2117,
      "Ġconstr": 2118,
      "Ġintim": 2119,
      "Ġspark": 2120,
      "Ġspielberg": 2121,
      "Ġperiod": 2122,
      "Ġtrou": 2123,
      "Ġadults": 2124,
      "Ġroll": 2125,
      "Ġuses": 2126,
      "Ġoffer": 2127,
      "Ġoverall": 2128,
      "ibility": 2129,
      "Ġcool": 2130,
      "olds": 2131,
      "Ġtalent": 2132,
      "Ġdepth": 2133,
      "Ġanimated": 2134,
      "Ġeye": 2135,
      "Ġexpress": 2136,
      "Ġdelightful": 2137,
      "Ġunsett": 2138,
      "Ġimpressive": 2139,
      "Ġcommun": 2140,
      "Ġopen": 2141,
      "Ġfalls": 2142,
      "Ġinspir": 2143,
      "Ġpolitical": 2144,
      "semble": 2145,
      "Ġwelcome": 2146,
      "Ġtragedy": 2147,
      "Ġugly": 2148,
      "Ġvirt": 2149,
      "Ġgentle": 2150,
      "Ġadaptation": 2151,
      "Ġoscar": 2152,
      "hop": 2153,
      "ira": 2154,
      "iff": 2155,
      "uel": 2156,
      "vant": 2157,
      "Ġ3": 2158,
      "Ġtear": 2159,
      "Ġauth": 2160,
      "Ġsal": 2161,
      "Ġsour": 2162,
      "Ġmad": 2163,
      "Ġwed": 2164,
      "Ġwil": 2165,
      "Ġcart": 2166,
      "Ġcost": 2167,
      "Ġbus": 2168,
      "Ġbarely": 2169,
      "Ġpet": 2170,
      "Ġduring": 2171,
      "Ġnich": 2172,
      "Ġiss": 2173,
      "Ġgoof": 2174,
      "Ġmod": 2175,
      "Ġreleas": 2176,
      "Ġrecomm": 2177,
      "rol": 2178,
      "right": 2179,
      "Ġunlike": 2180,
      "Ġexact": 2181,
      "Ġconvent": 2182,
      "Ġsci": 2183,
      "Ġscary": 2184,
      "arted": 2185,
      "oph": 2186,
      "Ġvar": 2187,
      "Ġimm": 2188,
      "Ġleg": 2189,
      "Ġamaz": 2190,
      "Ġnovel": 2191,
      "Ġpost": 2192,
      "oying": 2193,
      "pping": 2194,
      "ipul": 2195,
      "Ġsurf": 2196,
      "Ġawful": 2197,
      "screen": 2198,
      "Ġbeauty": 2199,
      "Ġguys": 2200,
      "Ġschool": 2201,
      "Ġgrace": 2202,
      "beat": 2203,
      "cessary": 2204,
      "Ġeleg": 2205,
      "Ġappeal": 2206,
      "Ġcamp": 2207,
      "Ġfriend": 2208,
      "Ġreturn": 2209,
      "Ġmurder": 2210,
      "Ġambitious": 2211,
      "Ġflaws": 2212,
      "Ġsingle": 2213,
      "ength": 2214,
      "Ġdefinitely": 2215,
      "Ġliter": 2216,
      "Ġcreepy": 2217,
      "Ġlatest": 2218,
      "Ġmajor": 2219,
      "Ġgorgeous": 2220,
      "Ġbreath": 2221,
      "Ġmedioc": 2222,
      "Ġunsettling": 2223,
      "bly": 2224,
      "body": 2225,
      "fl": 2226,
      "light": 2227,
      "rom": 2228,
      "Ġram": 2229,
      "ino": 2230,
      "inct": 2231,
      "real": 2232,
      "Ġful": 2233,
      "Ġfinal": 2234,
      "Ġwise": 2235,
      "Ġwitty": 2236,
      "atter": 2237,
      "Ġcal": 2238,
      "Ġcity": 2239,
      "Ġcuri": 2240,
      "Ġball": 2241,
      "Ġbull": 2242,
      "Ġann": 2243,
      "onstr": 2244,
      "Ġpack": 2245,
      "Ġpunch": 2246,
      "Ġhom": 2247,
      "Ġhot": 2248,
      "Ġhip": 2249,
      "Ġden": 2250,
      "arily": 2251,
      "Ġla": 2252,
      "Ġtot": 2253,
      "leg": 2254,
      "Ġgame": 2255,
      "entially": 2256,
      "Ġreach": 2257,
      "Ġrevel": 2258,
      "vide": 2259,
      "imp": 2260,
      "ried": 2261,
      "Ġaltern": 2262,
      "ement": 2263,
      "umber": 2264,
      "usi": 2265,
      "Ġenc": 2266,
      "Ġrout": 2267,
      "quently": 2268,
      "Ġwords": 2269,
      "Ġkiss": 2270,
      "Ġprov": 2271,
      "Ġthanks": 2272,
      "Ġacted": 2273,
      "udd": 2274,
      "udget": 2275,
      "herent": 2276,
      "Ġamount": 2277,
      "Ġmanipul": 2278,
      "Ġpossible": 2279,
      "Ġworking": 2280,
      "acy": 2281,
      "pped": 2282,
      "Ġgetting": 2283,
      "Ġremake": 2284,
      "Ġthemes": 2285,
      "Ġgrant": 2286,
      "Ġattention": 2287,
      "scious": 2288,
      "Ġguy": 2289,
      "Ġhighly": 2290,
      "Ġlacking": 2291,
      "Ġtalented": 2292,
      "Ġ200": 2293,
      "Ġappealing": 2294,
      "Ġhands": 2295,
      "Ġputs": 2296,
      "oppy": 2297,
      "Ġfollow": 2298,
      "Ġdavid": 2299,
      "Ġsuffers": 2300,
      "Ġmagic": 2301,
      "Ġobserv": 2302,
      "Ġurban": 2303,
      "movie": 2304,
      "Ġrelationships": 2305,
      "Ġfantasy": 2306,
      "Ġopportun": 2307,
      "Ġsympath": 2308,
      "Ġtarget": 2309,
      "Ġoccasionally": 2310,
      "Ġfuture": 2311,
      "Ġsustain": 2312,
      "Ġfemale": 2313,
      "Ġcelebr": 2314,
      "ah": 2315,
      "aces": 2316,
      "back": 2317,
      "ey": 2318,
      "gra": 2319,
      "sw": 2320,
      "Ġly": 2321,
      "Ġuse": 2322,
      "Ġtyp": 2323,
      "Ġaim": 2324,
      "inative": 2325,
      "ened": 2326,
      "Ġfest": 2327,
      "Ġfast": 2328,
      "Ġfelt": 2329,
      "Ġmatch": 2330,
      "Ġmild": 2331,
      "ister": 2332,
      "attle": 2333,
      "Ġcatch": 2334,
      "Ġbi": 2335,
      "Ġburn": 2336,
      "Ġpub": 2337,
      "Ġhell": 2338,
      "Ġdest": 2339,
      "ices": 2340,
      "icult": 2341,
      "Ġtoward": 2342,
      "Ġgh": 2343,
      "Ġreward": 2344,
      "eth": 2345,
      "view": 2346,
      "Ġyes": 2347,
      "oles": 2348,
      "ades": 2349,
      "ament": 2350,
      "Ġju": 2351,
      "Ġjap": 2352,
      "Ġexh": 2353,
      "aken": 2354,
      "Ġdeft": 2355,
      "Ġscr": 2356,
      "uster": 2357,
      "Ġallen": 2358,
      "Ġplenty": 2359,
      "Ġmanner": 2360,
      "Ġpoet": 2361,
      "Ġquality": 2362,
      "form": 2363,
      "Ġcompany": 2364,
      "Ġsomeone": 2365,
      "Ġroom": 2366,
      "Ġbrings": 2367,
      "Ġremind": 2368,
      "Ġwatchable": 2369,
      "Ġstrugg": 2370,
      "Ġcontin": 2371,
      "Ġthroughout": 2372,
      "Ġcollect": 2373,
      "Ġreson": 2374,
      "Ġresult": 2375,
      "Ġprim": 2376,
      "Ġcrush": 2377,
      "Ġsurprise": 2378,
      "Ġpictures": 2379,
      "Ġapart": 2380,
      "Ġstylish": 2381,
      "Ġapparent": 2382,
      "Ġunfortun": 2383,
      "Ġknows": 2384,
      "Ġpieces": 2385,
      "Ġmarvel": 2386,
      "Ġacross": 2387,
      "Ġelements": 2388,
      "Ġdecent": 2389,
      "Ġprodu": 2390,
      "fied": 2391,
      "Ġdeter": 2392,
      "Ġuneven": 2393,
      "Ġmasterpiece": 2394,
      "Ġdifficult": 2395,
      "Ġgirls": 2396,
      "Ġepic": 2397,
      "Ġbehind": 2398,
      "Ġexamination": 2399,
      "Ġmetaph": 2400,
      "Ġseveral": 2401,
      "Ġcountry": 2402,
      "Ġunexpected": 2403,
      "Ġjapan": 2404,
      "\\*": 2405,
      "aust": 2406,
      "down": 2407,
      "ior": 2408,
      "mon": 2409,
      "ode": 2410,
      "ron": 2411,
      "wor": 2412,
      "Ġtim": 2413,
      "Ġsong": 2414,
      "Ġsac": 2415,
      "Ġsav": 2416,
      "erous": 2417,
      "ender": 2418,
      "Ġfra": 2419,
      "Ġmart": 2420,
      "Ġmoney": 2421,
      "Ġwall": 2422,
      "Ġcir": 2423,
      "Ġcrow": 2424,
      "Ġban": 2425,
      "Ġbog": 2426,
      "orious": 2427,
      "Ġpal": 2428,
      "anced": 2429,
      "Ġdry": 2430,
      "Ġlaw": 2431,
      "Ġloud": 2432,
      "Ġtom": 2433,
      "Ġname": 2434,
      "Ġones": 2435,
      "Ġchan": 2436,
      "Ġcomplic": 2437,
      "thers": 2438,
      "Ġshoot": 2439,
      "umph": 2440,
      "Ġensemble": 2441,
      "quis": 2442,
      "Ġscore": 2443,
      "Ġworse": 2444,
      "ateur": 2445,
      "Ġfrank": 2446,
      "Ġhack": 2447,
      "orts": 2448,
      "itted": 2449,
      "Ġweight": 2450,
      "ared": 2451,
      "Ġemerg": 2452,
      "Ġdisgu": 2453,
      "Ġfaith": 2454,
      "Ġgeneric": 2455,
      "Ġlovely": 2456,
      "Ġprot": 2457,
      "Ġcasting": 2458,
      "appy": 2459,
      "Ġtriumph": 2460,
      "Ġcredit": 2461,
      "life": 2462,
      "Ġemotions": 2463,
      "Ġsets": 2464,
      "Ġphot": 2465,
      "Ġunfunny": 2466,
      "Ġplaying": 2467,
      "Ġcareer": 2468,
      "Ġneeds": 2469,
      "Ġcrafted": 2470,
      "Ġkeeps": 2471,
      "Ġcreative": 2472,
      "Ġsexy": 2473,
      "Ġsuperfic": 2474,
      "Ġabsurd": 2475,
      "Ġsensitive": 2476,
      "Ġperfectly": 2477,
      "Ġundeni": 2478,
      "Ġpromise": 2479,
      "Ġwarmth": 2480,
      "Ġevil": 2481,
      "Ġunique": 2482,
      "Ġwinning": 2483,
      "Ġjackson": 2484,
      "ĠclichèĮħs": 2485,
      "Ġdoubt": 2486,
      "Ġexecution": 2487,
      "Ġimportant": 2488,
      "Ġutterly": 2489,
      "Ġprovides": 2490,
      "Ġenthusi": 2491,
      "Ġphilos": 2492,
      "Ġframe": 2493,
      "Ġcontempor": 2494,
      "Ġtrouble": 2495,
      "Ġissues": 2496,
      "Ġexactly": 2497,
      "Ġprovocative": 2498,
      "aff": 2499,
      "bo": 2500,
      "bute": 2501,
      "gress": 2502,
      "lo": 2503,
      "my": 2504,
      "mark": 2505,
      "nes": 2506,
      "par": 2507,
      "table": 2508,
      "ura": 2509,
      "xic": 2510,
      "zen": 2511,
      "Ġing": 2512,
      "inning": 2513,
      "eness": 2514,
      "Ġfi": 2515,
      "Ġfare": 2516,
      "Ġmal": 2517,
      "Ġwast": 2518,
      "Ġwish": 2519,
      "Ġwaste": 2520,
      "Ġbattle": 2521,
      "Ġpan": 2522,
      "Ġpap": 2523,
      "Ġpace": 2524,
      "Ġpacing": 2525,
      "Ġlaz": 2526,
      "omb": 2527,
      "Ġgar": 2528,
      "Ġgun": 2529,
      "chy": 2530,
      "verse": 2531,
      "ries": 2532,
      "Ġchang": 2533,
      "Ġsuck": 2534,
      "Ġcommer": 2535,
      "Ġlif": 2536,
      "Ġliked": 2537,
      "oose": 2538,
      "Ġshap": 2539,
      "ury": 2540,
      "Ġconcl": 2541,
      "Ġword": 2542,
      "ander": 2543,
      "Ġintense": 2544,
      "Ġsoci": 2545,
      "asty": 2546,
      "Ġprop": 2547,
      "Ġplain": 2548,
      "Ġfear": 2549,
      "orting": 2550,
      "Ġprec": 2551,
      "Ġprevious": 2552,
      "ounter": 2553,
      "Ġamong": 2554,
      "Ġamateur": 2555,
      "Ġwilli": 2556,
      "izes": 2557,
      "Ġdesign": 2558,
      "Ġhold": 2559,
      "rent": 2560,
      "Ġago": 2561,
      "Ġrespect": 2562,
      "Ġhardly": 2563,
      "Ġminor": 2564,
      "Ġincred": 2565,
      "Ġexciting": 2566,
      "Ġworthy": 2567,
      "Ġamerica": 2568,
      "azz": 2569,
      "Ġconsist": 2570,
      "Ġwants": 2571,
      "Ġlots": 2572,
      "Ġcreates": 2573,
      "ology": 2574,
      "Ġsexual": 2575,
      "Ġmemory": 2576,
      "Ġdemonstr": 2577,
      "Ġabsolutely": 2578,
      "Ġmonster": 2579,
      "Ġbuild": 2580,
      "Ġbrain": 2581,
      "Ġbegins": 2582,
      "hearted": 2583,
      "Ġquestion": 2584,
      "Ġdeserves": 2585,
      "Ġbased": 2586,
      "Ġbreak": 2587,
      "Ġconvincing": 2588,
      "Ġsituations": 2589,
      "Ġsucceeds": 2590,
      "Ġsomewhat": 2591,
      "Ġsophistic": 2592,
      "Ġpoignant": 2593,
      "Ġepisode": 2594,
      "Ġpurpose": 2595,
      "Ġnatural": 2596,
      "Ġinclud": 2597,
      "Ġuntil": 2598,
      "Ġcartoon": 2599,
      "Ġrecommend": 2600,
      "Ġ2002": 2601,
      "Ġunfortunately": 2602,
      "Ġcrowd": 2603,
      "Ġsuperficial": 2604,
      "Ġcontemporary": 2605,
      "70": 2606,
      "avi": 2607,
      "bre": 2608,
      "du": 2609,
      "die": 2610,
      "fying": 2611,
      "ges": 2612,
      "kward": 2613,
      "mos": 2614,
      "nect": 2615,
      "rical": 2616,
      "vice": 2617,
      "Ġ4": 2618,
      "Ġ5": 2619,
      "Ġtick": 2620,
      "Ġaut": 2621,
      "Ġsick": 2622,
      "Ġsaw": 2623,
      "Ġsitting": 2624,
      "Ġothers": 2625,
      "rel": 2626,
      "Ġfoot": 2627,
      "Ġms": 2628,
      "Ġmach": 2629,
      "ator": 2630,
      "Ġcris": 2631,
      "Ġbond": 2632,
      "Ġpick": 2633,
      "Ġham": 2634,
      "Ġdre": 2635,
      "Ġdate": 2636,
      "Ġlad": 2637,
      "Ġlate": 2638,
      "ilt": 2639,
      "Ġinn": 2640,
      "Ġnumb": 2641,
      "Ġeth": 2642,
      "lege": 2643,
      "Ġgay": 2644,
      "Ġmoore": 2645,
      "Ġmother": 2646,
      "vey": 2647,
      "ching": 2648,
      "char": 2649,
      "Ġbears": 2650,
      "Ġign": 2651,
      "Ġalone": 2652,
      "Ġliving": 2653,
      "amb": 2654,
      "Ġje": 2655,
      "Ġshame": 2656,
      "Ġshallow": 2657,
      "agger": 2658,
      "Ġry": 2659,
      "Ġrhy": 2660,
      "Ġability": 2661,
      "Ġconcer": 2662,
      "Ġatmos": 2663,
      "Ġintent": 2664,
      "Ġfront": 2665,
      "action": 2666,
      "Ġcharism": 2667,
      "decess": 2668,
      "Ġvo": 2669,
      "Ġvul": 2670,
      "Ġpredecess": 2671,
      "Ġclum": 2672,
      "Ġweak": 2673,
      "Ġupon": 2674,
      "Ġblue": 2675,
      "atingly": 2676,
      "Ġempt": 2677,
      "Ġdesc": 2678,
      "phy": 2679,
      "Ġmaybe": 2680,
      "Ġstruct": 2681,
      "angu": 2682,
      "Ġhowever": 2683,
      "Ġcinemat": 2684,
      "Ġfrequently": 2685,
      "Ġawkward": 2686,
      "ivity": 2687,
      "Ġtribute": 2688,
      "Ġcreate": 2689,
      "insp": 2690,
      "insky": 2691,
      "Ġviewing": 2692,
      "Ġsurprises": 2693,
      "Ġthinking": 2694,
      "Ġirre": 2695,
      "Ġruns": 2696,
      "Ġaccom": 2697,
      "Ġexplor": 2698,
      "Ġrepres": 2699,
      "Ġpainful": 2700,
      "Ġpainfully": 2701,
      "Ġcultural": 2702,
      "Ġproduct": 2703,
      "voking": 2704,
      "Ġabsor": 2705,
      "Ġsecret": 2706,
      "Ġproblems": 2707,
      "Ġseriously": 2708,
      "Ġleads": 2709,
      "Ġmaint": 2710,
      "Ġmurphy": 2711,
      "Ġcalled": 2712,
      "Ġsounds": 2713,
      "Ġinsightful": 2714,
      "Ġsuccessful": 2715,
      "vision": 2716,
      "Ġslightly": 2717,
      "Ġsupposed": 2718,
      "Ġidi": 2719,
      "Ġaffection": 2720,
      "Ġsandler": 2721,
      "Ġderiv": 2722,
      "Ġreveals": 2723,
      "Ġcouple": 2724,
      "Ġextraord": 2725,
      "Ġinventive": 2726,
      "Ġcolorful": 2727,
      "Ġgeorge": 2728,
      "Ġfavor": 2729,
      "Ġmerely": 2730,
      "Ġconstruct": 2731,
      "Ġnichol": 2732,
      "Ġconventional": 2733,
      "Ġmediocre": 2734,
      "Ġmanipulative": 2735,
      "Ġpoetry": 2736,
      "Ġcirc": 2737,
      "Ġrhyth": 2738,
      "felt": 2739,
      "haps": 2740,
      "iven": 2741,
      "mers": 2742,
      "oss": 2743,
      "ral": 2744,
      "rous": 2745,
      "round": 2746,
      "side": 2747,
      "tra": 2748,
      "yal": 2749,
      "Ġtur": 2750,
      "Ġtaking": 2751,
      "Ġtires": 2752,
      "Ġavoid": 2753,
      "Ġson": 2754,
      "reh": 2755,
      "ency": 2756,
      "Ġfer": 2757,
      "Ġfive": 2758,
      "Ġcore": 2759,
      "Ġbod": 2760,
      "Ġansw": 2761,
      "ingu": 2762,
      "inger": 2763,
      "orm": 2764,
      "anks": 2765,
      "Ġhall": 2766,
      "Ġdim": 2767,
      "arter": 2768,
      "alt": 2769,
      "aly": 2770,
      "Ġlength": 2771,
      "Ġnumber": 2772,
      "Ġgross": 2773,
      "ellect": 2774,
      "ction": 2775,
      "Ġstere": 2776,
      "Ġstren": 2777,
      "Ġstock": 2778,
      "Ġwhite": 2779,
      "Ġfill": 2780,
      "Ġfilled": 2781,
      "Ġaspect": 2782,
      "Ġchem": 2783,
      "Ġsug": 2784,
      "Ġcomfort": 2785,
      "sequ": 2786,
      "uses": 2787,
      "ousy": 2788,
      "Ġdevoid": 2789,
      "Ġdoing": 2790,
      "Ġnear": 2791,
      "Ġking": 2792,
      "andon": 2793,
      "andering": 2794,
      "Ġhaun": 2795,
      "Ġallows": 2796,
      "Ġplaces": 2797,
      "Ġfears": 2798,
      "Ġvict": 2799,
      "alling": 2800,
      "Ġarri": 2801,
      "aught": 2802,
      "Ġusually": 2803,
      "Ġovercome": 2804,
      "Ġmeans": 2805,
      "Ġtwists": 2806,
      "Ġrid": 2807,
      "Ġrip": 2808,
      "Ġrive": 2809,
      "Ġsmo": 2810,
      "Ġimpact": 2811,
      "Ġbrut": 2812,
      "Ġtele": 2813,
      "Ġtext": 2814,
      "Ġages": 2815,
      "Ġcollege": 2816,
      "versal": 2817,
      "Ġresp": 2818,
      "ondz": 2819,
      "Ġgrou": 2820,
      "Ġinterested": 2821,
      "Ġclearly": 2822,
      "Ġterms": 2823,
      "Ġguess": 2824,
      "Ġplease": 2825,
      "Ġstyl": 2826,
      "Ġfinds": 2827,
      "Ġsket": 2828,
      "Ġultimate": 2829,
      "Ġpointless": 2830,
      "Ġindie": 2831,
      "Ġcreated": 2832,
      "Ġbroad": 2833,
      "Ġbrown": 2834,
      "Ġedge": 2835,
      "Ġaccept": 2836,
      "Ġeffective": 2837,
      "Ġsolondz": 2838,
      "Ġrepet": 2839,
      "Ġflicks": 2840,
      "Ġmindless": 2841,
      "Ġconfl": 2842,
      "Ġbelievable": 2843,
      "Ġgeneral": 2844,
      "Ġcaptiv": 2845,
      "Ġspiritual": 2846,
      "Ġeventually": 2847,
      "Ġdamned": 2848,
      "Ġlets": 2849,
      "Ġequally": 2850,
      "Ġflawed": 2851,
      "Ġtreatment": 2852,
      "Ġinept": 2853,
      "Ġmeaning": 2854,
      "Ġident": 2855,
      "Ġdevast": 2856,
      "Ġsituation": 2857,
      "Ġsplend": 2858,
      "Ġquickly": 2859,
      "Ġpoorly": 2860,
      "Ġconsiderable": 2861,
      "Ġachieve": 2862,
      "Ġspectacle": 2863,
      "Ġaston": 2864,
      "Ġendearing": 2865,
      "Ġfunnier": 2866,
      "Ġfigure": 2867,
      "Ġbritish": 2868,
      "Ġdepressing": 2869,
      "Ġintimate": 2870,
      "Ġwedding": 2871,
      "Ġgoofy": 2872,
      "Ġsurface": 2873,
      "Ġfully": 2874,
      "Ġtypical": 2875,
      "Ġcommercial": 2876,
      "Ġamateurish": 2877,
      "Ġwilliams": 2878,
      "Ġsophisticated": 2879,
      "Ġaccompl": 2880,
      "Ġderivative": 2881,
      "Ġtiresome": 2882,
      "af": 2883,
      "bl": 2884,
      "bling": 2885,
      "egr": 2886,
      "how": 2887,
      "ied": 2888,
      "ki": 2889,
      "kn": 2890,
      "ken": 2891,
      "lic": 2892,
      "nal": 2893,
      "power": 2894,
      "town": 2895,
      "uit": 2896,
      "yc": 2897,
      "yle": 2898,
      "Ġu": 2899,
      "Ġest": 2900,
      "Ġera": 2901,
      "Ġtension": 2902,
      "Ġtaken": 2903,
      "Ġaver": 2904,
      "Ġage": 2905,
      "ina": 2906,
      "Ġsink": 2907,
      "reci": 2908,
      "Ġfore": 2909,
      "Ġmak": 2910,
      "Ġcat": 2911,
      "Ġcand": 2912,
      "Ġcour": 2913,
      "Ġcyn": 2914,
      "Ġbore": 2915,
      "Ġbott": 2916,
      "Ġpic": 2917,
      "Ġpri": 2918,
      "Ġpian": 2919,
      "ancy": 2920,
      "Ġhouse": 2921,
      "aris": 2922,
      "aries": 2923,
      "Ġlangu": 2924,
      "Ġna": 2925,
      "Ġnar": 2926,
      "asure": 2927,
      "lex": 2928,
      "Ġgold": 2929,
      "stick": 2930,
      "stream": 2931,
      "Ġstay": 2932,
      "Ġstale": 2933,
      "Ġstars": 2934,
      "Ġwhate": 2935,
      "Ġya": 2936,
      "Ġforced": 2937,
      "Ġchall": 2938,
      "Ġalien": 2939,
      "Ġmoviego": 2940,
      "oop": 2941,
      "irty": 2942,
      "Ġunus": 2943,
      "Ġuncon": 2944,
      "Ġjol": 2945,
      "Ġseat": 2946,
      "Ġseason": 2947,
      "Ġshad": 2948,
      "Ġshare": 2949,
      "Ġshots": 2950,
      "illed": 2951,
      "agon": 2952,
      "ague": 2953,
      "ume": 2954,
      "aked": 2955,
      "Ġdeal": 2956,
      "quent": 2957,
      "istry": 2958,
      "Ġcond": 2959,
      "Ġconv": 2960,
      "Ġconst": 2961,
      "ants": 2962,
      "Ġintro": 2963,
      "Ġintellect": 2964,
      "Ġfranch": 2965,
      "Ġsoder": 2966,
      "ustry": 2967,
      "Ġallow": 2968,
      "Ġvill": 2969,
      "Ġimax": 2970,
      "Ġprep": 2971,
      "ief": 2972,
      "Ġpos": 2973,
      "Ġjustice": 2974,
      "Ġsomehow": 2975,
      "Ġused": 2976,
      "Ġdisco": 2977,
      "Ġyourself": 2978,
      "Ġsubt": 2979,
      "Ġrealistic": 2980,
      "Ġsurvi": 2981,
      "bergh": 2982,
      "Ġtravel": 2983,
      "Ġtragic": 2984,
      "Ġheartfelt": 2985,
      "Ġground": 2986,
      "Ġgreatest": 2987,
      "Ġtrip": 2988,
      "Ġguilty": 2989,
      "Ġexcit": 2990,
      "Ġworthwh": 2991,
      "Ġrecord": 2992,
      "Ġhumanity": 2993,
      "Ġpleasant": 2994,
      "Ġschm": 2995,
      "Ġunfolds": 2996,
      "Ġskin": 2997,
      "arring": 2998,
      "Ġneeded": 2999,
      "Ġpoints": 3000,
      "Ġcrazy": 3001,
      "Ġ20": 3002,
      "Ġdraw": 3003,
      "iculous": 3004,
      "volution": 3005,
      "Ġterrible": 3006,
      "Ġmeditation": 3007,
      "Ġtransc": 3008,
      "Ġpresent": 3009,
      "Ġpresents": 3010,
      "ify": 3011,
      "Ġoddly": 3012,
      "Ġattempts": 3013,
      "Ġdragon": 3014,
      "Ġuniversal": 3015,
      "Ġremarkably": 3016,
      "Ġformulaic": 3017,
      "Ġprofess": 3018,
      "Ġquietly": 3019,
      "Ġbright": 3020,
      "medi": 3021,
      "provoking": 3022,
      "Ġmotion": 3023,
      "Ġgenuinely": 3024,
      "Ġdelicate": 3025,
      "Ġinvolving": 3026,
      "Ġinvolved": 3027,
      "Ġattraction": 3028,
      "Ġextremely": 3029,
      "Ġpeter": 3030,
      "Ġmodest": 3031,
      "Ġamazing": 3032,
      "Ġbullock": 3033,
      "Ġopportunity": 3034,
      "eyed": 3035,
      "Ġfestival": 3036,
      "Ġscratch": 3037,
      "Ġmetaphor": 3038,
      "Ġconclusion": 3039,
      "Ġcinematography": 3040,
      "Ġabsorbing": 3041,
      "Ġstereot": 3042,
      "Ġchemistry": 3043,
      "Ġsuggest": 3044,
      "Ġidentity": 3045,
      "Ġastonishing": 3046,
      "Ġbottom": 3047,
      "Ġwhatever": 3048,
      "Ġfranchise": 3049,
      "Ġsoderbergh": 3050,
      "Ġworthwhile": 3051,
      "aven": 3052,
      "bs": 3053,
      "bed": 3054,
      "bled": 3055,
      "cere": 3056,
      "cies": 3057,
      "cult": 3058,
      "corn": 3059,
      "ein": 3060,
      "eper": 3061,
      "good": 3062,
      "gment": 3063,
      "hem": 3064,
      "ium": 3065,
      "ives": 3066,
      "ife": 3067,
      "ived": 3068,
      "kable": 3069,
      "making": 3070,
      "na": 3071,
      "sch": 3072,
      "ux": 3073,
      "val": 3074,
      "vil": 3075,
      "Ġic": 3076,
      "Ġtun": 3077,
      "Ġtough": 3078,
      "Ġtelling": 3079,
      "iny": 3080,
      "Ġsar": 3081,
      "Ġsappy": 3082,
      "erk": 3083,
      "ero": 3084,
      "itative": 3085,
      "enn": 3086,
      "ener": 3087,
      "Ġfoc": 3088,
      "Ġfiction": 3089,
      "Ġmc": 3090,
      "Ġmes": 3091,
      "Ġmist": 3092,
      "Ġbol": 3093,
      "Ġbir": 3094,
      "Ġbold": 3095,
      "Ġpu": 3096,
      "Ġpile": 3097,
      "Ġponder": 3098,
      "Ġpract": 3099,
      "outh": 3100,
      "Ġhyp": 3101,
      "Ġdu": 3102,
      "Ġdick": 3103,
      "alian": 3104,
      "Ġlame": 3105,
      "Ġtoday": 3106,
      "asm": 3107,
      "ashing": 3108,
      "Ġgre": 3109,
      "Ġgut": 3110,
      "uter": 3111,
      "entic": 3112,
      "otten": 3113,
      "Ġstre": 3114,
      "Ġstop": 3115,
      "Ġstage": 3116,
      "unct": 3117,
      "Ġrequ": 3118,
      "rap": 3119,
      "ulgent": 3120,
      "vern": 3121,
      "Ġbeat": 3122,
      "Ġyarn": 3123,
      "Ġchilling": 3124,
      "Ġalive": 3125,
      "abor": 3126,
      "Ġjul": 3127,
      "Ġsea": 3128,
      "Ġsearch": 3129,
      "Ġnotice": 3130,
      "Ġruss": 3131,
      "Ġdecept": 3132,
      "Ġconnect": 3133,
      "Ġscar": 3134,
      "Ġscream": 3135,
      "Ġneg": 3136,
      "ape": 3137,
      "Ġsoon": 3138,
      "ffman": 3139,
      "Ġprovide": 3140,
      "Ġheaven": 3141,
      "Ġplod": 3142,
      "dered": 3143,
      "Ġspook": 3144,
      "Ġspace": 3145,
      "Ġspider": 3146,
      "Ġsports": 3147,
      "Ġimmedi": 3148,
      "inded": 3149,
      "Ġstoryline": 3150,
      "Ġord": 3151,
      "Ġlee": 3152,
      "Ġloc": 3153,
      "Ġloss": 3154,
      "Ġarg": 3155,
      "Ġadoles": 3156,
      "Ġvibr": 3157,
      "Ġcompet": 3158,
      "Ġcompass": 3159,
      "Ġcomputer": 3160,
      "Ġblade": 3161,
      "osity": 3162,
      "Ġoffensive": 3163,
      "acious": 3164,
      "Ġemph": 3165,
      "Ġdisc": 3166,
      "Ġdism": 3167,
      "Ġslip": 3168,
      "Ġrad": 3169,
      "Ġrap": 3170,
      "Ġrealism": 3171,
      "Ġsurround": 3172,
      "acher": 3173,
      "Ġinsult": 3174,
      "rence": 3175,
      "Ġserved": 3176,
      "fts": 3177,
      "Ġtradit": 3178,
      "Ġheartwar": 3179,
      "Ġheartbre": 3180,
      "Ġparty": 3181,
      "Ġthrills": 3182,
      "Ġinco": 3183,
      "umbs": 3184,
      "Ġsetting": 3185,
      "Ġappreci": 3186,
      "Ġchees": 3187,
      "avor": 3188,
      "Ġindustry": 3189,
      "Ġbroom": 3190,
      "Ġsheer": 3191,
      "Ġsincere": 3192,
      "dden": 3193,
      "Ġrefer": 3194,
      "Ġhoffman": 3195,
      "Ġaffair": 3196,
      "Ġdistinct": 3197,
      "Ġdecades": 3198,
      "field": 3199,
      "conscious": 3200,
      "Ġaccess": 3201,
      "Ġassured": 3202,
      "Ġhappen": 3203,
      "Ġmainstream": 3204,
      "Ġpopcorn": 3205,
      "retch": 3206,
      "Ġmelodramatic": 3207,
      "Ġwildly": 3208,
      "Ġpolitics": 3209,
      "Ġintrigue": 3210,
      "Ġangst": 3211,
      "Ġinex": 3212,
      "Ġmissing": 3213,
      "Ġboys": 3214,
      "Ġdrug": 3215,
      "Ġgrief": 3216,
      "Ġgripping": 3217,
      "Ġobsess": 3218,
      "Ġquestions": 3219,
      "Ġdreams": 3220,
      "Ġvalue": 3221,
      "Ġcentral": 3222,
      "Ġtells": 3223,
      "Ġnicely": 3224,
      "Ġforgettable": 3225,
      "Ġstrangely": 3226,
      "written": 3227,
      "Ġslapstick": 3228,
      "Ġniro": 3229,
      "handed": 3230,
      "Ġessentially": 3231,
      "Ġgangster": 3232,
      "Ġpowers": 3233,
      "Ġcommunity": 3234,
      "Ġvirtually": 3235,
      "Ġbusiness": 3236,
      "Ġfriendship": 3237,
      "Ġroutine": 3238,
      "Ġlawrence": 3239,
      "Ġemerges": 3240,
      "Ġprotagon": 3241,
      "Ġphilosoph": 3242,
      "Ġwasted": 3243,
      "Ġpaper": 3244,
      "Ġincredibly": 3245,
      "Ġryan": 3246,
      "Ġempty": 3247,
      "Ġextraordinary": 3248,
      "iveness": 3249,
      "Ġridiculous": 3250,
      "Ġriveting": 3251,
      "Ġconflict": 3252,
      "Ġchalleng": 3253,
      "Ġexcitement": 3254,
      "ave": 3255,
      "bel": 3256,
      "fall": 3257,
      "gth": 3258,
      "girl": 3259,
      "ike": 3260,
      "ique": 3261,
      "kin": 3262,
      "lu": 3263,
      "men": 3264,
      "mas": 3265,
      "made": 3266,
      "minded": 3267,
      "ners": 3268,
      "nam": 3269,
      "night": 3270,
      "ole": 3271,
      "over": 3272,
      "pre": 3273,
      "Ġ&": 3274,
      "Ġty": 3275,
      "Ġah": 3276,
      "ining": 3277,
      "Ġsight": 3278,
      "Ġsides": 3279,
      "itable": 3280,
      "itude": 3281,
      "Ġfit": 3282,
      "Ġfal": 3283,
      "Ġfur": 3284,
      "Ġfood": 3285,
      "Ġfashion": 3286,
      "Ġmil": 3287,
      "Ġmention": 3288,
      "Ġcell": 3289,
      "Ġcame": 3290,
      "Ġber": 3291,
      "Ġbow": 3292,
      "Ġbag": 3293,
      "orous": 3294,
      "Ġped": 3295,
      "Ġpul": 3296,
      "Ġpair": 3297,
      "Ġpush": 3298,
      "Ġhate": 3299,
      "Ġdie": 3300,
      "Ġdang": 3301,
      "Ġdrown": 3302,
      "Ġdazz": 3303,
      "arre": 3304,
      "arity": 3305,
      "eds": 3306,
      "Ġlan": 3307,
      "icism": 3308,
      "iler": 3309,
      "iling": 3310,
      "ilities": 3311,
      "Ġner": 3312,
      "ases": 3313,
      "leby": 3314,
      "Ġgos": 3315,
      "Ġstom": 3316,
      "Ġstir": 3317,
      "ety": 3318,
      "uls": 3319,
      "Ġaside": 3320,
      "Ġchance": 3321,
      "Ġsugar": 3322,
      "Ġsuspect": 3323,
      "erson": 3324,
      "Ġunin": 3325,
      "Ġjer": 3326,
      "ided": 3327,
      "Ġseag": 3328,
      "Ġrand": 3329,
      "Ġscience": 3330,
      "Ġnecessary": 3331,
      "Ġintended": 3332,
      "asting": 3333,
      "Ġproper": 3334,
      "Ġproceed": 3335,
      "ups": 3336,
      "udlin": 3337,
      "Ġperhaps": 3338,
      "Ġlos": 3339,
      "Ġload": 3340,
      "Ġloses": 3341,
      "Ġclim": 3342,
      "Ġclos": 3343,
      "Ġoutrage": 3344,
      "ounts": 3345,
      "Ġtrick": 3346,
      "Ġtrash": 3347,
      "icking": 3348,
      "Ġqueen": 3349,
      "Ġaddition": 3350,
      "Ġintoxic": 3351,
      "ending": 3352,
      "Ġroot": 3353,
      "ishes": 3354,
      "Ġwilling": 3355,
      "osition": 3356,
      "oyant": 3357,
      "Ġoverly": 3358,
      "Ġperformers": 3359,
      "Ġdisp": 3360,
      "Ġdisaster": 3361,
      "weight": 3362,
      "Ġsloppy": 3363,
      "ips": 3364,
      "Ġraw": 3365,
      "Ġtwice": 3366,
      "Ġdirectorial": 3367,
      "phic": 3368,
      "phere": 3369,
      "Ġsmile": 3370,
      "Ġsmarter": 3371,
      "Ġbadly": 3372,
      "anski": 3373,
      "Ġremain": 3374,
      "Ġservice": 3375,
      "athers": 3376,
      "fty": 3377,
      "fting": 3378,
      "Ġcontent": 3379,
      "Ġresults": 3380,
      "Ġviscer": 3381,
      "Ġfree": 3382,
      "Ġcruel": 3383,
      "Ġsimpl": 3384,
      "Ġaward": 3385,
      "Ġjoke": 3386,
      "Ġobject": 3387,
      "Ġkevin": 3388,
      "Ġimaginative": 3389,
      "Ġexcess": 3390,
      "Ġexcuse": 3391,
      "Ġrecyc": 3392,
      "Ġrelative": 3393,
      "Ġcarry": 3394,
      "arrass": 3395,
      "Ġelo": 3396,
      "Ġcheck": 3397,
      "Ġperspect": 3398,
      "Ġcrack": 3399,
      "Ġirrit": 3400,
      "Ġcliche": 3401,
      "neyed": 3402,
      "ological": 3403,
      "Ġediting": 3404,
      "Ġpolanski": 3405,
      "Ġsequence": 3406,
      "Ġreport": 3407,
      "Ġmembers": 3408,
      "Ġappears": 3409,
      "Ġstudio": 3410,
      "Ġswim": 3411,
      "Ġwonderfully": 3412,
      "Ġzone": 3413,
      "Ġfright": 3414,
      "Ġfinish": 3415,
      "Ġfeatures": 3416,
      "Ġgenerally": 3417,
      "Ġbarbers": 3418,
      "Ġfailure": 3419,
      "Ġhappy": 3420,
      "Ġhappens": 3421,
      "ilarating": 3422,
      "Ġsaid": 3423,
      "Ġsoundtra": 3424,
      "Ġinspired": 3425,
      "Ġsigns": 3426,
      "Ġbehavi": 3427,
      "Ġprofound": 3428,
      "Ġadmira": 3429,
      "Ġparticular": 3430,
      "Ġstriking": 3431,
      "Ġdeserve": 3432,
      "Ġregard": 3433,
      "Ġbene": 3434,
      "Ġgrowing": 3435,
      "Ġembra": 3436,
      "Ġmixed": 3437,
      "Ġescape": 3438,
      "Ġpossibly": 3439,
      "Ġcredits": 3440,
      "Ġbalance": 3441,
      "Ġhorrible": 3442,
      "Ġlargely": 3443,
      "Ġfrustrating": 3444,
      "Ġindeed": 3445,
      "Ġwoody": 3446,
      "Ġparker": 3447,
      "Ġrelease": 3448,
      "Ġelegant": 3449,
      "Ġbreatht": 3450,
      "Ġannoying": 3451,
      "Ġmildly": 3452,
      "Ġpublic": 3453,
      "Ġexhilarating": 3454,
      "Ġcollection": 3455,
      "Ġjapanese": 3456,
      "Ġmartin": 3457,
      "Ġcomplicated": 3458,
      "Ġhackneyed": 3459,
      "Ġdisguise": 3460,
      "Ġlazy": 3461,
      "Ġconsistently": 3462,
      "Ġfootage": 3463,
      "Ġdreary": 3464,
      "Ġatmosphere": 3465,
      "Ġvoice": 3466,
      "Ġdescri": 3467,
      "inspired": 3468,
      "Ġexploration": 3469,
      "Ġrepresents": 3470,
      "Ġstrength": 3471,
      "Ġhaunting": 3472,
      "Ġgroup": 3473,
      "Ġsplendid": 3474,
      "Ġnarc": 3475,
      "Ġconviction": 3476,
      "Ġstereotyp": 3477,
      "Ġmesmer": 3478,
      "Ġcompassion": 3479,
      "Ġemphas": 3480,
      "Ġheartwarming": 3481,
      "Ġfurther": 3482,
      "Ġseagal": 3483,
      "Ġsoundtrack": 3484,
      "aith": 3485,
      "book": 3486,
      "cra": 3487,
      "col": 3488,
      "dan": 3489,
      "dram": 3490,
      "ex": 3491,
      "hic": 3492,
      "here": 3493,
      "hmer": 3494,
      "long": 3495,
      "nature": 3496,
      "pend": 3497,
      "rate": 3498,
      "sn": 3499,
      "uces": 3500,
      "vy": 3501,
      "vate": 3502,
      "work": 3503,
      "xious": 3504,
      "yam": 3505,
      "Ġtack": 3506,
      "Ġtender": 3507,
      "inn": 3508,
      "Ġthird": 3509,
      "Ġsan": 3510,
      "erable": 3511,
      "erget": 3512,
      "Ġopt": 3513,
      "rest": 3514,
      "rets": 3515,
      "Ġfu": 3516,
      "Ġfab": 3517,
      "Ġfac": 3518,
      "Ġfier": 3519,
      "Ġmill": 3520,
      "Ġmac": 3521,
      "Ġmale": 3522,
      "Ġwes": 3523,
      "Ġwry": 3524,
      "Ġwond": 3525,
      "Ġwann": 3526,
      "Ġwife": 3527,
      "Ġcute": 3528,
      "Ġbab": 3529,
      "Ġband": 3530,
      "Ġbiz": 3531,
      "Ġbother": 3532,
      "Ġbody": 3533,
      "Ġbored": 3534,
      "Ġbudget": 3535,
      "esque": 3536,
      "inging": 3537,
      "ori": 3538,
      "ority": 3539,
      "onna": 3540,
      "Ġpen": 3541,
      "Ġpra": 3542,
      "Ġpris": 3543,
      "oura": 3544,
      "Ġhide": 3545,
      "Ġhits": 3546,
      "Ġdom": 3547,
      "Ġdol": 3548,
      "Ġdread": 3549,
      "alan": 3550,
      "lying": 3551,
      "edy": 3552,
      "Ġling": 3553,
      "Ġlay": 3554,
      "Ġlud": 3555,
      "Ġluck": 3556,
      "Ġlines": 3557,
      "Ġlousy": 3558,
      "icrous": 3559,
      "ils": 3560,
      "Ġnick": 3561,
      "Ġnons": 3562,
      "Ġeight": 3563,
      "Ġgem": 3564,
      "Ġgames": 3565,
      "stein": 3566,
      "Ġstretch": 3567,
      "Ġrepl": 3568,
      "Ġrevolution": 3569,
      "imag": 3570,
      "chant": 3571,
      "vert": 3572,
      "Ġfilmed": 3573,
      "rip": 3574,
      "olic": 3575,
      "Ġcompl": 3576,
      "Ġunfor": 3577,
      "Ġunint": 3578,
      "Ġjag": 3579,
      "Ġjason": 3580,
      "Ġjames": 3581,
      "idd": 3582,
      "iday": 3583,
      "Ġsham": 3584,
      "Ġshakes": 3585,
      "Ġshyam": 3586,
      "ager": 3587,
      "umble": 3588,
      "Ġenig": 3589,
      "Ġenerget": 3590,
      "Ġrush": 3591,
      "Ġrises": 3592,
      "istent": 3593,
      "Ġconce": 3594,
      "Ġcondition": 3595,
      "Ġscors": 3596,
      "aine": 3597,
      "ellow": 3598,
      "Ġintegr": 3599,
      "asts": 3600,
      "ustin": 3601,
      "Ġhaw": 3602,
      "Ġplan": 3603,
      "Ġfeat": 3604,
      "Ġspoof": 3605,
      "hington": 3606,
      "plo": 3607,
      "Ġflu": 3608,
      "Ġpoetic": 3609,
      "Ġadult": 3610,
      "ogn": 3611,
      "Ġcomedic": 3612,
      "Ġroger": 3613,
      "Ġenter": 3614,
      "Ġblock": 3615,
      "Ġusing": 3616,
      "comfort": 3617,
      "Ġoffering": 3618,
      "acity": 3619,
      "ensity": 3620,
      "ensions": 3621,
      "ensional": 3622,
      "Ġtimely": 3623,
      "Ġmeandering": 3624,
      "Ġsurreal": 3625,
      "Ġmayhem": 3626,
      "Ġbrought": 3627,
      "Ġholes": 3628,
      "Ġholds": 3629,
      "Ġholiday": 3630,
      "Ġremin": 3631,
      "Ġwashington": 3632,
      "Ġtheme": 3633,
      "Ġresist": 3634,
      "Ġprin": 3635,
      "Ġprice": 3636,
      "Ġlonger": 3637,
      "Ġhumorous": 3638,
      "Ġobno": 3639,
      "Ġdownright": 3640,
      "Ġcharacteriz": 3641,
      "Ġshowtime": 3642,
      "ledge": 3643,
      "Ġterror": 3644,
      "Ġbelly": 3645,
      "Ġenjoyed": 3646,
      "Ġolder": 3647,
      "Ġfarce": 3648,
      "Ġsett": 3649,
      "Ġrelent": 3650,
      "Ġcarries": 3651,
      "Ġglass": 3652,
      "Ġglimp": 3653,
      "Ġtalk": 3654,
      "Ġtalking": 3655,
      "Ġunfaith": 3656,
      "Ġconsp": 3657,
      "Ġplayed": 3658,
      "Ġknowing": 3659,
      "Ġmusical": 3660,
      "Ġmarg": 3661,
      "Ġgrad": 3662,
      "Ġcreating": 3663,
      "Ġleaving": 3664,
      "Ġdespair": 3665,
      "Ġoriginality": 3666,
      "whel": 3667,
      "Ġmira": 3668,
      "Ġsuperb": 3669,
      "Ġsubjects": 3670,
      "Ġfriday": 3671,
      "Ġconfusing": 3672,
      "Ġvisuals": 3673,
      "Ġsensual": 3674,
      "Ġbuy": 3675,
      "Ġassass": 3676,
      "mined": 3677,
      "Ġbarry": 3678,
      "Ġexpected": 3679,
      "Ġsave": 3680,
      "Ġsnow": 3681,
      "standing": 3682,
      "Ġpromising": 3683,
      "writer": 3684,
      "Ġwalk": 3685,
      "Ġsuspenseful": 3686,
      "ificial": 3687,
      "ground": 3688,
      "Ġreading": 3689,
      "ropri": 3690,
      "Ġwait": 3691,
      "Ġcentury": 3692,
      "Ġaffecting": 3693,
      "Ġpaul": 3694,
      "Ġmotiv": 3695,
      "Ġtrem": 3696,
      "Ġpotential": 3697,
      "Ġdelicious": 3698,
      "Ġtheatre": 3699,
      "Ġembarrass": 3700,
      "Ġcourage": 3701,
      "Ġvehic": 3702,
      "Ġachieves": 3703,
      "Ġfatal": 3704,
      "Ġsomewhere": 3705,
      "wrought": 3706,
      "Ġdevelopment": 3707,
      "Ġfunniest": 3708,
      "Ġvividly": 3709,
      "Ġsubstance": 3710,
      "Ġstandards": 3711,
      "Ġrefreshingly": 3712,
      "Ġearth": 3713,
      "ovich": 3714,
      "Ġdigital": 3715,
      "Ġinspiring": 3716,
      "Ġauthentic": 3717,
      "Ġsource": 3718,
      "Ġtotally": 3719,
      "uddled": 3720,
      "Ġsympathy": 3721,
      "Ġburns": 3722,
      "Ġghost": 3723,
      "Ġdeftly": 3724,
      "Ġstruggle": 3725,
      "Ġapparently": 3726,
      "Ġsongs": 3727,
      "Ġundeniably": 3728,
      "Ġingen": 3729,
      "Ġchanging": 3730,
      "Ġdesigned": 3731,
      "Ġincluding": 3732,
      "Ġinnoc": 3733,
      "Ġcharisma": 3734,
      "Ġvulgar": 3735,
      "Ġstructure": 3736,
      "Ġaspects": 3737,
      "Ġtelevision": 3738,
      "Ġrespons": 3739,
      "Ġrepetitive": 3740,
      "Ġdevastating": 3741,
      "Ġaverage": 3742,
      "Ġprofessional": 3743,
      "school": 3744,
      "Ġdickens": 3745,
      "Ġvibrant": 3746,
      "Ġbroomfield": 3747,
      "Ġphilosophical": 3748,
      "Ġdazzling": 3749,
      "Ġsimplistic": 3750,
      "Ġperspective": 3751,
      "Ġbarbershop": 3752,
      "Ġbehavior": 3753,
      "Ġbeneath": 3754,
      "natured": 3755,
      "Ġbizarre": 3756,
      "Ġludicrous": 3757,
      "Ġshyamalan": 3758,
      "Ġenergetic": 3759,
      "Ġscorsese": 3760,
      "Ġobnoxious": 3761,
      "Ġglimpse": 3762,
      "Ġunfaithful": 3763,
      "Ġvehicle": 3764,
      "60": 3765,
      "aa": 3766,
      "boy": 3767,
      "bles": 3768,
      "brid": 3769,
      "budget": 3770,
      "dim": 3771,
      "ee": 3772,
      "eks": 3773,
      "fest": 3774,
      "funct": 3775,
      "hour": 3776,
      "hash": 3777,
      "ix": 3778,
      "lig": 3779,
      "not": 3780,
      "put": 3781,
      "ters": 3782,
      "tog": 3783,
      "uci": 3784,
      "Ġice": 3785,
      "Ġtay": 3786,
      "Ġade": 3787,
      "Ġsne": 3788,
      "Ġfis": 3789,
      "Ġwoo": 3790,
      "Ġcry": 3791,
      "Ġcause": 3792,
      "Ġbitt": 3793,
      "Ġbite": 3794,
      "Ġbaff": 3795,
      "Ġbomb": 3796,
      "oring": 3797,
      "oric": 3798,
      "orig": 3799,
      "Ġpit": 3800,
      "Ġpitch": 3801,
      "Ġhus": 3802,
      "Ġdv": 3803,
      "Ġdare": 3804,
      "Ġdish": 3805,
      "Ġdign": 3806,
      "Ġdirty": 3807,
      "ario": 3808,
      "alk": 3809,
      "lyn": 3810,
      "Ġlil": 3811,
      "icip": 3812,
      "illy": 3813,
      "Ġincomp": 3814,
      "Ġtoss": 3815,
      "Ġitalian": 3816,
      "Ġnu": 3817,
      "Ġnation": 3818,
      "Ġgree": 3819,
      "Ġgrown": 3820,
      "star": 3821,
      "stal": 3822,
      "Ġstarring": 3823,
      "Ġreign": 3824,
      "viously": 3825,
      "raid": 3826,
      "che": 3827,
      "room": 3828,
      "Ġwhom": 3829,
      "ceived": 3830,
      "Ġasp": 3831,
      "Ġasks": 3832,
      "Ġwithin": 3833,
      "Ġchris": 3834,
      "Ġchase": 3835,
      "Ġcomment": 3836,
      "erswe": 3837,
      "Ġliber": 3838,
      "Ġlived": 3839,
      "Ġunh": 3840,
      "Ġunne": 3841,
      "Ġuncomp": 3842,
      "Ġunimag": 3843,
      "Ġuncomfort": 3844,
      "ama": 3845,
      "abe": 3846,
      "Ġjunk": 3847,
      "ids": 3848,
      "Ġsees": 3849,
      "Ġshi": 3850,
      "ills": 3851,
      "umes": 3852,
      "uming": 3853,
      "Ġenorm": 3854,
      "aky": 3855,
      "Ġabandon": 3856,
      "Ġdeeper": 3857,
      "ained": 3858,
      "Ġkore": 3859,
      "Ġkne": 3860,
      "peare": 3861,
      "Ġintensity": 3862,
      "actic": 3863,
      "Ġvs": 3864,
      "Ġvamp": 3865,
      "Ġspot": 3866,
      "Ġspring": 3867,
      "Ġpress": 3868,
      "Ġpreach": 3869,
      "Ġcloying": 3870,
      "ploy": 3871,
      "Ġflo": 3872,
      "Ġfluff": 3873,
      "Ġnoir": 3874,
      "Ġwears": 3875,
      "Ġweek": 3876,
      "Ġarch": 3877,
      "Ġadam": 3878,
      "Ġrow": 3879,
      "Ġoffice": 3880,
      "Ġoverwhel": 3881,
      "ppings": 3882,
      "Ġslick": 3883,
      "Ġslice": 3884,
      "ritory": 3885,
      "izz": 3886,
      "Ġdesire": 3887,
      "Ġdirectors": 3888,
      "Ġsmug": 3889,
      "Ġrealize": 3890,
      "ressed": 3891,
      "Ġinsane": 3892,
      "Ġbroth": 3893,
      "Ġstrang": 3894,
      "Ġteam": 3895,
      "Ġcontra": 3896,
      "ocused": 3897,
      "Ġtrappings": 3898,
      "Ġartificial": 3899,
      "Ġbiggest": 3900,
      "Ġshowc": 3901,
      "Ġknock": 3902,
      "Ġlaughter": 3903,
      "Ġterritory": 3904,
      "Ġincre": 3905,
      "Ġenglish": 3906,
      "Ġdiver": 3907,
      "ibilities": 3908,
      "Ġemotion": 3909,
      "Ġrecogn": 3910,
      "Ġpleasures": 3911,
      "Ġideal": 3912,
      "Ġfinding": 3913,
      "Ġplayful": 3914,
      "Ġknowledge": 3915,
      "Ġdepart": 3916,
      "Ġturned": 3917,
      "Ġexperiment": 3918,
      "Ġexperiences": 3919,
      "avis": 3920,
      "Ġthinks": 3921,
      "Ġiran": 3922,
      "Ġindi": 3923,
      "Ġdelivery": 3924,
      "Ġdrawn": 3925,
      "Ġreflect": 3926,
      "elessly": 3927,
      "where": 3928,
      "Ġdistingu": 3929,
      "Ġtouches": 3930,
      "Ġpersonality": 3931,
      "Ġdemands": 3932,
      "Ġsitcom": 3933,
      "Ġstands": 3934,
      "Ġretread": 3935,
      "Ġsadly": 3936,
      "Ġsouth": 3937,
      "Ġsecrets": 3938,
      "Ġharv": 3939,
      "Ġdelightfully": 3940,
      "Ġmaudlin": 3941,
      "Ġsurely": 3942,
      "Ġpresence": 3943,
      "Ġimpression": 3944,
      "Ġnowhere": 3945,
      "Ġfolks": 3946,
      "Ġfairy": 3947,
      "Ġambig": 3948,
      "Ġmarks": 3949,
      "Ġmarket": 3950,
      "Ġsignific": 3951,
      "Ġlevels": 3952,
      "Ġhonestly": 3953,
      "vised": 3954,
      "Ġexample": 3955,
      "Ġwaiting": 3956,
      "Ġvalues": 3957,
      "Ġviolent": 3958,
      "apses": 3959,
      "Ġpaid": 3960,
      "Ġrevealing": 3961,
      "Ġcombination": 3962,
      "Ġdetails": 3963,
      "Ġdetailed": 3964,
      "Ġgrows": 3965,
      "Ġsymb": 3966,
      "Ġpathetic": 3967,
      "Ġrent": 3968,
      "Ġactresses": 3969,
      "Ġdesperation": 3970,
      "Ġdesperate": 3971,
      "Ġanti": 3972,
      "Ġgodard": 3973,
      "Ġstunning": 3974,
      "Ġjoyous": 3975,
      "Ġscreenwriter": 3976,
      "Ġunpre": 3977,
      "Ġunpleas": 3978,
      "Ġchristian": 3979,
      "Ġchristmas": 3980,
      "Ġlistless": 3981,
      "Ġflashy": 3982,
      "Ġforgotten": 3983,
      "Ġtwisted": 3984,
      "Ġvarious": 3985,
      "romising": 3986,
      "attered": 3987,
      "Ġtotal": 3988,
      "Ġhandsome": 3989,
      "Ġobservations": 3990,
      "Ġresonant": 3991,
      "Ġdeterm": 3992,
      "\\*\\*": 3993,
      "Ġsacri": 3994,
      "quisite": 3995,
      "Ġsociety": 3996,
      "Ġprecious": 3997,
      "Ġcrisp": 3998,
      "Ġconcerned": 3999,
      "Ġpredecessor": 4000,
      "Ġconstructed": 4001,
      "Ġcaptivating": 4002,
      "Ġachievement": 4003,
      "Ġestab": 4004,
      "Ġcourse": 4005,
      "Ġmoviegoers": 4006,
      "Ġvillain": 4007,
      "Ġpositive": 4008,
      "Ġpuzz": 4009,
      "Ġordinary": 4010,
      "Ġcheesy": 4011,
      "Ġprotagonist": 4012,
      "Ġfalse": 4013,
      "Ġstomach": 4014,
      "Ġstirring": 4015,
      "Ġintoxicating": 4016,
      "Ġvisceral": 4017,
      "Ġirritating": 4018,
      "Ġmesmerizing": 4019,
      "drama": 4020,
      "Ġfierce": 4021,
      "Ġwannabe": 4022,
      "Ġunintent": 4023,
      "Ġgradually": 4024,
      "dimensional": 4025,
      "together": 4026,
      "Ġbitterswe": 4027,
      "original": 4028,
      "Ġgreek": 4029,
      "Ġunnecessary": 4030,
      "Ġbrothers": 4031,
      "Ġbittersweet": 4032,
      "bor": 4033,
      "cr": 4034,
      "dem": 4035,
      "eur": 4036,
      "fer": 4037,
      "gl": 4038,
      "gor": 4039,
      "ham": 4040,
      "kins": 4041,
      "look": 4042,
      "lows": 4043,
      "mn": 4044,
      "oly": 4045,
      "pan": 4046,
      "pleas": 4047,
      "ruct": 4048,
      "top": 4049,
      "uity": 4050,
      "uable": 4051,
      "vag": 4052,
      "Ġ$": 4053,
      "Ġ7": 4054,
      "Ġvers": 4055,
      "Ġtap": 4056,
      "Ġtight": 4057,
      "Ġtong": 4058,
      "Ġtour": 4059,
      "Ġtuck": 4060,
      "Ġav": 4061,
      "Ġath": 4062,
      "Ġawe": 4063,
      "iner": 4064,
      "Ġsun": 4065,
      "Ġsill": 4066,
      "Ġsant": 4067,
      "Ġsade": 4068,
      "Ġfate": 4069,
      "Ġfake": 4070,
      "Ġfish": 4071,
      "Ġfather": 4072,
      "Ġmas": 4073,
      "Ġmult": 4074,
      "Ġmass": 4075,
      "Ġmile": 4076,
      "Ġwent": 4077,
      "Ġwow": 4078,
      "Ġcaut": 4079,
      "Ġcounter": 4080,
      "Ġbul": 4081,
      "Ġboo": 4082,
      "Ġbart": 4083,
      "Ġbound": 4084,
      "Ġbuff": 4085,
      "Ġbunch": 4086,
      "Ġanaly": 4087,
      "onel": 4088,
      "Ġpin": 4089,
      "Ġpad": 4090,
      "Ġpaced": 4091,
      "ano": 4092,
      "Ġhay": 4093,
      "Ġhur": 4094,
      "Ġhart": 4095,
      "Ġhook": 4096,
      "Ġdon": 4097,
      "Ġdro": 4098,
      "Ġdud": 4099,
      "Ġdiv": 4100,
      "Ġdub": 4101,
      "Ġdys": 4102,
      "Ġdavis": 4103,
      "arant": 4104,
      "edo": 4105,
      "Ġloose": 4106,
      "Ġlonel": 4107,
      "iced": 4108,
      "Ġinh": 4109,
      "Ġinno": 4110,
      "Ġnic": 4111,
      "Ġnational": 4112,
      "Ġnasty": 4113,
      "Ġeast": 4114,
      "Ġecc": 4115,
      "Ġearly": 4116,
      "Ġevo": 4117,
      "asp": 4118,
      "asy": 4119,
      "asive": 4120,
      "asingly": 4121,
      "lets": 4122,
      "levant": 4123,
      "Ġga": 4124,
      "Ġger": 4125,
      "utions": 4126,
      "entric": 4127,
      "sters": 4128,
      "Ġstink": 4129,
      "Ġstuck": 4130,
      "Ġrepe": 4131,
      "Ġrede": 4132,
      "Ġresem": 4133,
      "etto": 4134,
      "etnam": 4135,
      "imal": 4136,
      "imsy": 4137,
      "roc": 4138,
      "road": 4139,
      "rope": 4140,
      "Ġonto": 4141,
      "Ġyu": 4142,
      "ola": 4143,
      "olation": 4144,
      "Ġcha": 4145,
      "Ġcher": 4146,
      "Ġchick": 4147,
      "Ġchines": 4148,
      "Ġchoppy": 4149,
      "Ġyouth": 4150,
      "Ġsuit": 4151,
      "see": 4152,
      "Ġlies": 4153,
      "Ġmoviemaking": 4154,
      "ooper": 4155,
      "irming": 4156,
      "Ġuninspired": 4157,
      "Ġjac": 4158,
      "Ġjones": 4159,
      "thr": 4160,
      "theless": 4161,
      "eman": 4162,
      "ago": 4163,
      "agers": 4164,
      "ummy": 4165,
      "ushing": 4166,
      "Ġenvi": 4167,
      "urs": 4168,
      "urday": 4169,
      "Ġexceed": 4170,
      "Ġdeg": 4171,
      "Ġconc": 4172,
      "Ġconvers": 4173,
      "ella": 4174,
      "Ġkung": 4175,
      "Ġkiller": 4176,
      "anding": 4177,
      "Ġintric": 4178,
      "Ġsober": 4179,
      "Ġprove": 4180,
      "Ġcharmer": 4181,
      "Ġhey": 4182,
      "Ġsomber": 4183,
      "Ġacts": 4184,
      "ops": 4185,
      "Ġvin": 4186,
      "Ġvap": 4187,
      "Ġvague": 4188,
      "Ġspell": 4189,
      "indulgent": 4190,
      "Ġlearn": 4191,
      "Ġloved": 4192,
      "Ġlogic": 4193,
      "Ġclo": 4194,
      "Ġclarity": 4195,
      "Ġoutside": 4196,
      "place": 4197,
      "Ġamused": 4198,
      "Ġamounts": 4199,
      "Ġmanh": 4200,
      "Ġmanage": 4201,
      "perfect": 4202,
      "Ġflair": 4203,
      "Ġpoke": 4204,
      "Ġpoem": 4205,
      "Ġupd": 4206,
      "Ġupli": 4207,
      "Ġargent": 4208,
      "Ġvietnam": 4209,
      "eping": 4210,
      "Ġblend": 4211,
      "Ġhumour": 4212,
      "Ġoffbeat": 4213,
      "Ġoverwrought": 4214,
      "ensible": 4215,
      "Ġemer": 4216,
      "Ġempath": 4217,
      "Ġslack": 4218,
      "lessness": 4219,
      "Ġnevertheless": 4220,
      "Ġinterview": 4221,
      "Ġendless": 4222,
      "Ġholoc": 4223,
      "Ġserves": 4224,
      "Ġthematic": 4225,
      "Ġstrict": 4226,
      "neider": 4227,
      "Ġcontrol": 4228,
      "ashed": 4229,
      "angle": 4230,
      "Ġhoward": 4231,
      "Ġmature": 4232,
      "oster": 4233,
      "Ġroman": 4234,
      "Ġplotting": 4235,
      "inking": 4236,
      "Ġhearts": 4237,
      "Ġ11": 4238,
      "Ġgritty": 4239,
      "Ġmyth": 4240,
      "Ġwars": 4241,
      "Ġcrass": 4242,
      "Ġcrude": 4243,
      "Ġafraid": 4244,
      "Ġgiant": 4245,
      "Ġgiving": 4246,
      "Ġgifted": 4247,
      "cific": 4248,
      "Ġtrif": 4249,
      "istically": 4250,
      "Ġkey": 4251,
      "Ġlaughing": 4252,
      "Ġincon": 4253,
      "Ġimagery": 4254,
      "Ġbelow": 4255,
      "Ġbelong": 4256,
      "teen": 4257,
      "Ġspecific": 4258,
      "Ġsaturday": 4259,
      "Ġbackground": 4260,
      "Ġcaper": 4261,
      "Ġrelies": 4262,
      "Ġcharms": 4263,
      "Ġgloss": 4264,
      "Ġtalents": 4265,
      "Ġappropri": 4266,
      "Ġschneider": 4267,
      "Ġunfocused": 4268,
      "Ġskip": 4269,
      "Ġdepiction": 4270,
      "dictable": 4271,
      "Ġwanted": 4272,
      "Ġcrap": 4273,
      "Ġgraphic": 4274,
      "Ġbroken": 4275,
      "Ġdeliber": 4276,
      "Ġeasier": 4277,
      "Ġeddie": 4278,
      "ails": 4279,
      "Ġexplore": 4280,
      "Ġexplos": 4281,
      "Ġelement": 4282,
      "Ġbitter": 4283,
      "Ġappear": 4284,
      "Ġanimal": 4285,
      "Ġdistur": 4286,
      "Ġdistract": 4287,
      "Ġsuperior": 4288,
      "Ġpersona": 4289,
      "Ġze": 4290,
      "Ġportrayal": 4291,
      "Ġhalfway": 4292,
      "Ġfinale": 4293,
      "Ġwitch": 4294,
      "Ġwitness": 4295,
      "Ġaccur": 4296,
      "Ġaccount": 4297,
      "Ġsensational": 4298,
      "Ġmonty": 4299,
      "Ġbox": 4300,
      "Ġtransl": 4301,
      "Ġtransp": 4302,
      "ographed": 4303,
      "Ġ195": 4304,
      "Ġ198": 4305,
      "Ġsafe": 4306,
      "Ġpopul": 4307,
      "Ġcommon": 4308,
      "Ġdamage": 4309,
      "Ġbeginning": 4310,
      "class": 4311,
      "Ġfantastic": 4312,
      "ointed": 4313,
      "Ġsentimentality": 4314,
      "Ġmagn": 4315,
      "Ġdeadly": 4316,
      "Ġdifference": 4317,
      "Ġpsychology": 4318,
      "Ġillustr": 4319,
      "Ġmissed": 4320,
      "Ġsequels": 4321,
      "Ġsupporting": 4322,
      "Ġwinds": 4323,
      "Ġunderstanding": 4324,
      "Ġpatience": 4325,
      "Ġhopkins": 4326,
      "Ġjournal": 4327,
      "Ġdisappointing": 4328,
      "Ġexecuted": 4329,
      "Ġimprove": 4330,
      "Ġexploitative": 4331,
      "Ġdesperately": 4332,
      "Ġdelivered": 4333,
      "Ġspectacular": 4334,
      "Ġstunts": 4335,
      "Ġenthr": 4336,
      "Ġscreenwriting": 4337,
      "Ġscreenwriters": 4338,
      "Ġerotic": 4339,
      "Ġsubtlety": 4340,
      "ivalent": 4341,
      "Ġhugely": 4342,
      "Ġfighting": 4343,
      "Ġtestament": 4344,
      "Ġcurrent": 4345,
      "Ġmadonna": 4346,
      "Ġwilde": 4347,
      "Ġunlikely": 4348,
      "Ġreturns": 4349,
      "Ġliterary": 4350,
      "Ġhomage": 4351,
      "Ġrevelatory": 4352,
      "Ġencounter": 4353,
      "Ġkissinger": 4354,
      "Ġlyrical": 4355,
      "Ġrewarding": 4356,
      "Ġreminds": 4357,
      "Ġproduced": 4358,
      "Ġdetermined": 4359,
      "Ġtiming": 4360,
      "Ġsacchar": 4361,
      "Ġfrailty": 4362,
      "Ġbanal": 4363,
      "Ġguns": 4364,
      "Ġlady": 4365,
      "Ġnumbers": 4366,
      "Ġintentions": 4367,
      "Ġclumsy": 4368,
      "Ġmaintains": 4369,
      "Ġnicholas": 4370,
      "Ġrhythms": 4371,
      "Ġanswers": 4372,
      "Ġhallmark": 4373,
      "Ġsketch": 4374,
      "Ġaccomplished": 4375,
      "Ġmakers": 4376,
      "Ġcandy": 4377,
      "Ġpianist": 4378,
      "Ġunusual": 4379,
      "culture": 4380,
      "Ġstreet": 4381,
      "Ġplodding": 4382,
      "Ġspooky": 4383,
      "Ġadolescent": 4384,
      "Ġtraditional": 4385,
      "Ġheartbreaking": 4386,
      "Ġincoherent": 4387,
      "Ġreferences": 4388,
      "Ġaccessible": 4389,
      "Ġchallenging": 4390,
      "Ġtype": 4391,
      "Ġgosling": 4392,
      "Ġproceedings": 4393,
      "Ġoutrageous": 4394,
      "Ġrelatively": 4395,
      "Ġadmirable": 4396,
      "Ġstereotypes": 4397,
      "Ġadequ": 4398,
      "Ġfisher": 4399,
      "Ġdignity": 4400,
      "Ġcommentary": 4401,
      "Ġuncompromising": 4402,
      "Ġcontradict": 4403,
      "Ġincreasingly": 4404,
      "Ġharvard": 4405,
      "Ġunpleasant": 4406,
      "Ġestablish": 4407,
      "Ġsanta": 4408,
      "Ġinnov": 4409,
      "Ġchinese": 4410,
      "Ġholocaust": 4411,
      "Ġsaccharine": 4412,
      "aim": 4413,
      "aver": 4414,
      "bad": 4415,
      "band": 4416,
      "do": 4417,
      "ded": 4418,
      "dge": 4419,
      "fam": 4420,
      "fire": 4421,
      "fman": 4422,
      "funny": 4423,
      "gory": 4424,
      "gio": 4425,
      "iation": 4426,
      "iant": 4427,
      "iently": 4428,
      "jinsky": 4429,
      "ka": 4430,
      "kind": 4431,
      "lom": 4432,
      "lines": 4433,
      "nic": 4434,
      "numb": 4435,
      "ope": 4436,
      "py": 4437,
      "pet": 4438,
      "rup": 4439,
      "rated": 4440,
      "ront": 4441,
      "say": 4442,
      "ued": 4443,
      "uce": 4444,
      "ya": 4445,
      "Ġ\\/": 4446,
      "Ġtort": 4447,
      "Ġtempt": 4448,
      "Ġtends": 4449,
      "Ġtasty": 4450,
      "Ġtux": 4451,
      "Ġaute": 4452,
      "Ġaims": 4453,
      "Ġaustin": 4454,
      "inist": 4455,
      "inated": 4456,
      "Ġthous": 4457,
      "Ġsam": 4458,
      "Ġsag": 4459,
      "Ġsell": 4460,
      "Ġsister": 4461,
      "erved": 4462,
      "Ġoh": 4463,
      "Ġode": 4464,
      "Ġoli": 4465,
      "itz": 4466,
      "eningly": 4467,
      "Ġfool": 4468,
      "Ġfellow": 4469,
      "Ġment": 4470,
      "Ġmount": 4471,
      "Ġmiller": 4472,
      "Ġmouth": 4473,
      "Ġmuddled": 4474,
      "ision": 4475,
      "isive": 4476,
      "Ġwis": 4477,
      "Ġwick": 4478,
      "Ġwound": 4479,
      "Ġwide": 4480,
      "Ġcu": 4481,
      "Ġcas": 4482,
      "Ġcate": 4483,
      "Ġcard": 4484,
      "Ġbed": 4485,
      "Ġbree": 4486,
      "Ġbits": 4487,
      "esh": 4488,
      "Ġpity": 4489,
      "Ġparent": 4490,
      "anc": 4491,
      "anity": 4492,
      "Ġhun": 4493,
      "Ġhill": 4494,
      "Ġhust": 4495,
      "Ġhitch": 4496,
      "Ġdut": 4497,
      "Ġdue": 4498,
      "Ġdyn": 4499,
      "Ġdeni": 4500,
      "lym": 4501,
      "Ġlu": 4502,
      "Ġlun": 4503,
      "Ġlush": 4504,
      "Ġluri": 4505,
      "Ġlump": 4506,
      "iles": 4507,
      "Ġinner": 4508,
      "Ġtoler": 4509,
      "omination": 4510,
      "Ġeer": 4511,
      "Ġeve": 4512,
      "asured": 4513,
      "Ġgro": 4514,
      "Ġgently": 4515,
      "Ġmoves": 4516,
      "ionary": 4517,
      "stated": 4518,
      "stopp": 4519,
      "style": 4520,
      "Ġstro": 4521,
      "Ġstate": 4522,
      "Ġstone": 4523,
      "Ġstore": 4524,
      "Ġstays": 4525,
      "Ġstitch": 4526,
      "Ġstaged": 4527,
      "Ġreven": 4528,
      "Ġrehash": 4529,
      "imm": 4530,
      "imer": 4531,
      "rael": 4532,
      "chan": 4533,
      "Ġbeast": 4534,
      "Ġbeach": 4535,
      "rovers": 4536,
      "Ġwhims": 4537,
      "Ġonscreen": 4538,
      "Ġask": 4539,
      "rian": 4540,
      "rium": 4541,
      "riage": 4542,
      "Ġchic": 4543,
      "Ġchab": 4544,
      "Ġchuck": 4545,
      "Ġchann": 4546,
      "Ġchina": 4547,
      "Ġchilly": 4548,
      "sey": 4549,
      "Ġalab": 4550,
      "Ġalleg": 4551,
      "oochy": 4552,
      "iring": 4553,
      "irited": 4554,
      "Ġunw": 4555,
      "Ġunre": 4556,
      "Ġunab": 4557,
      "Ġunless": 4558,
      "Ġunoriginal": 4559,
      "Ġjon": 4560,
      "Ġjim": 4561,
      "Ġjess": 4562,
      "tha": 4563,
      "thin": 4564,
      "thday": 4565,
      "Ġsepar": 4566,
      "Ġsho": 4567,
      "emy": 4568,
      "eming": 4569,
      "usive": 4570,
      "estic": 4571,
      "Ġexotic": 4572,
      "Ġexquisite": 4573,
      "Ġring": 4574,
      "Ġrough": 4575,
      "Ġrise": 4576,
      "Ġdealing": 4577,
      "Ġconj": 4578,
      "Ġconscious": 4579,
      "Ġscoo": 4580,
      "Ġscott": 4581,
      "Ġscrew": 4582,
      "Ġneat": 4583,
      "Ġnecess": 4584,
      "apur": 4585,
      "aint": 4586,
      "aining": 4587,
      "Ġkau": 4588,
      "Ġkos": 4589,
      "Ġkline": 4590,
      "Ġkapur": 4591,
      "anders": 4592,
      "usting": 4593,
      "Ġhair": 4594,
      "acted": 4595,
      "Ġcharl": 4596,
      "Ġhear": 4597,
      "Ġheal": 4598,
      "Ġheard": 4599,
      "dering": 4600,
      "orton": 4601,
      "Ġvent": 4602,
      "Ġspent": 4603,
      "Ġspend": 4604,
      "Ġspite": 4605,
      "iche": 4606,
      "Ġimpl": 4607,
      "udes": 4608,
      "Ġpercept": 4609,
      "Ġperverse": 4610,
      "Ġorg": 4611,
      "Ġloves": 4612,
      "Ġclock": 4613,
      "plays": 4614,
      "Ġflow": 4615,
      "Ġweb": 4616,
      "Ġqual": 4617,
      "Ġard": 4618,
      "Ġarn": 4619,
      "Ġadds": 4620,
      "Ġworked": 4621,
      "Ġcomparis": 4622,
      "Ġroles": 4623,
      "odes": 4624,
      "Ġblow": 4625,
      "Ġblair": 4626,
      "comedy": 4627,
      "Ġemploy": 4628,
      "Ġdisplay": 4629,
      "Ġraunch": 4630,
      "Ġmechan": 4631,
      "Ġlooked": 4632,
      "Ġsmoochy": 4633,
      "Ġgenial": 4634,
      "Ġrealized": 4635,
      "Ġremote": 4636,
      "Ġseemingly": 4637,
      "Ġteens": 4638,
      "Ġteacher": 4639,
      "Ġcontains": 4640,
      "Ġcontrovers": 4641,
      "Ġromp": 4642,
      "Ġtrailer": 4643,
      "Ġpecul": 4644,
      "Ġwhenever": 4645,
      "Ġparticip": 4646,
      "Ġ12": 4647,
      "Ġ15": 4648,
      "Ġwarning": 4649,
      "Ġfreaks": 4650,
      "igni": 4651,
      "apping": 4652,
      "Ġcrim": 4653,
      "Ġcrud": 4654,
      "Ġminimal": 4655,
      "Ġafric": 4656,
      "Ġbigger": 4657,
      "Ġobsc": 4658,
      "Ġobviously": 4659,
      "ciful": 4660,
      "Ġlaughable": 4661,
      "likable": 4662,
      "rowing": 4663,
      "Ġscenario": 4664,
      "Ġbelt": 4665,
      "Ġguilt": 4666,
      "Ġguarant": 4667,
      "Ġlesson": 4668,
      "Ġsatir": 4669,
      "Ġpretends": 4670,
      "Ġpretension": 4671,
      "Ġamericans": 4672,
      "Ġcapable": 4673,
      "Ġglory": 4674,
      "Ġglorious": 4675,
      "Ġcares": 4676,
      "Ġmarriage": 4677,
      "Ġmartha": 4678,
      "Ġirres": 4679,
      "Ġirony": 4680,
      "Ġcliched": 4681,
      "Ġindian": 4682,
      "Ġcreativity": 4683,
      "Ġedited": 4684,
      "Ġpolice": 4685,
      "Ġmessages": 4686,
      "Ġsweetly": 4687,
      "vincing": 4688,
      "xture": 4689,
      "Ġstealing": 4690,
      "Ġspirits": 4691,
      "Ġbiting": 4692,
      "Ġmike": 4693,
      "Ġmixture": 4694,
      "Ġdistance": 4695,
      "Ġwondering": 4696,
      "Ġpaint": 4697,
      "Ġfriends": 4698,
      "Ġmelanch": 4699,
      "Ġminds": 4700,
      "Ġstartling": 4701,
      "iety": 4702,
      "Ġmasterful": 4703,
      "Ġbuoyant": 4704,
      "Ġretro": 4705,
      "Ġgeneration": 4706,
      "Ġcapture": 4707,
      "Ġsadness": 4708,
      "Ġsmartly": 4709,
      "Ġlightweight": 4710,
      "Ġpredictably": 4711,
      "Ġefforts": 4712,
      "Ġsilver": 4713,
      "Ġstrain": 4714,
      "Ġexpectation": 4715,
      "Ġexpectations": 4716,
      "Ġ199": 4717,
      "Ġparad": 4718,
      "Ġparody": 4719,
      "renching": 4720,
      "Ġsaving": 4721,
      "Ġsnip": 4722,
      "Ġmainly": 4723,
      "Ġcommitted": 4724,
      "Ġpromises": 4725,
      "Ġdamn": 4726,
      "Ġinflu": 4727,
      "Ġteenagers": 4728,
      "Ġadventures": 4729,
      "Ġopening": 4730,
      "Ġborrow": 4731,
      "Ġevans": 4732,
      "Ġevocative": 4733,
      "Ġinsights": 4734,
      "Ġdrags": 4735,
      "Ġequivalent": 4736,
      "Ġredund": 4737,
      "Ġjackie": 4738,
      "Ġsuffering": 4739,
      "Ġangel": 4740,
      "Ġlarger": 4741,
      "Ġinev": 4742,
      "Ġadmit": 4743,
      "Ġadmire": 4744,
      "Ġsoulless": 4745,
      "Ġbride": 4746,
      "Ġslowly": 4747,
      "Ġstrike": 4748,
      "Ġcutting": 4749,
      "produ": 4750,
      "Ġbasic": 4751,
      "Ġexceptional": 4752,
      "Ġwindow": 4753,
      "Ġbenef": 4754,
      "Ġbenigni": 4755,
      "Ġconvinced": 4756,
      "Ġbrilliantly": 4757,
      "Ġhugh": 4758,
      "Ġreveal": 4759,
      "Ġcombines": 4760,
      "Ġpassionate": 4761,
      "Ġtreasure": 4762,
      "Ġpotentially": 4763,
      "Ġhoping": 4764,
      "Ġdelicately": 4765,
      "Ġtheaters": 4766,
      "Ġtheatrical": 4767,
      "Ġfanciful": 4768,
      "Ġdisappointed": 4769,
      "attan": 4770,
      "Ġimprob": 4771,
      "Ġattractive": 4772,
      "Ġexploitation": 4773,
      "Ġlimp": 4774,
      "Ġrendered": 4775,
      "Ġextravag": 4776,
      "Ġshocks": 4777,
      "Ġpossess": 4778,
      "Ġcredibility": 4779,
      "Ġhopeful": 4780,
      "Ġslee": 4781,
      "Ġsleep": 4782,
      "Ġendeavor": 4783,
      "Ġhorrifying": 4784,
      "Ġsubstit": 4785,
      "Ġburst": 4786,
      "Ġpulls": 4787,
      "Ġnijinsky": 4788,
      "Ġsophom": 4789,
      "Ġpoignancy": 4790,
      "Ġlandsc": 4791,
      "Ġindepend": 4792,
      "Ġforgive": 4793,
      "Ġchoices": 4794,
      "Ġunbear": 4795,
      "Ġthrows": 4796,
      "Ġhybrid": 4797,
      "Ġexistential": 4798,
      "Ġroller": 4799,
      "vantage": 4800,
      "Ġramsay": 4801,
      "Ġcuriously": 4802,
      "video": 4803,
      "Ġalternative": 4804,
      "Ġalternately": 4805,
      "formation": 4806,
      "Ġcontinues": 4807,
      "Ġmarvelous": 4808,
      "Ġwallace": 4809,
      "Ġundeniable": 4810,
      "Ġenthusiasm": 4811,
      "urable": 4812,
      "Ġlifeless": 4813,
      "Ġdemonstrates": 4814,
      "Ġticket": 4815,
      "Ġmachine": 4816,
      "Ġclums": 4817,
      "Ġnicholson": 4818,
      "Ġrhythm": 4819,
      "rehensible": 4820,
      "Ġcynical": 4821,
      "Ġprivate": 4822,
      "Ġunconvincing": 4823,
      "Ġintellectual": 4824,
      "Ġdiscover": 4825,
      "Ġtranscend": 4826,
      "Ġicon": 4827,
      "Ġfocus": 4828,
      "Ġmistake": 4829,
      "Ġbirthday": 4830,
      "Ġrussian": 4831,
      "Ġdismiss": 4832,
      "Ġinexplic": 4833,
      "Ġdrugs": 4834,
      "Ġpedest": 4835,
      "Ġdangerous": 4836,
      "Ġnerve": 4837,
      "Ġeloquent": 4838,
      "Ġbreathtaking": 4839,
      "crafted": 4840,
      "Ġprison": 4841,
      "Ġnickleby": 4842,
      "Ġreplaced": 4843,
      "Ġjaglom": 4844,
      "Ġshakespeare": 4845,
      "Ġenigma": 4846,
      "Ġplanet": 4847,
      "Ġblockb": 4848,
      "Ġcharacterizations": 4849,
      "Ġsettles": 4850,
      "Ġrelentlessly": 4851,
      "Ġassassin": 4852,
      "Ġingenious": 4853,
      "Ġinnocence": 4854,
      "functional": 4855,
      "Ġhusband": 4856,
      "Ġunimaginative": 4857,
      "Ġdiverting": 4858,
      "Ġiranian": 4859,
      "Ġunpredictable": 4860,
      "looking": 4861,
      "Ġtongue": 4862,
      "Ġathlet": 4863,
      "Ġcautionary": 4864,
      "Ġdysfunctional": 4865,
      "Ġloneliness": 4866,
      "Ġeccentric": 4867,
      "Ġrepeated": 4868,
      "Ġenviron": 4869,
      "Ġdegree": 4870,
      "Ġvapid": 4871,
      "Ġmanhattan": 4872,
      "Ġpokemon": 4873,
      "Ġuplifting": 4874,
      "Ġemerge": 4875,
      "Ġempathy": 4876,
      "Ġtrifle": 4877,
      "Ġbelongs": 4878,
      "Ġenthralling": 4879,
      "Ġtuxedo": 4880,
      "Ġbreezy": 4881,
      "Ġdynam": 4882,
      "Ġlurid": 4883,
      "Ġrevenge": 4884,
      "Ġwhimsical": 4885,
      "Ġchabrol": 4886,
      "Ġchannel": 4887,
      "Ġalabama": 4888,
      "Ġkaufman": 4889,
      "Ġirresist": 4890,
      "aid": 4891,
      "bal": 4892,
      "bas": 4893,
      "bid": 4894,
      "cal": 4895,
      "cil": 4896,
      "cur": 4897,
      "cock": 4898,
      "da": 4899,
      "dis": 4900,
      "dro": 4901,
      "dow": 4902,
      "dest": 4903,
      "drig": 4904,
      "dament": 4905,
      "ext": 4906,
      "free": 4907,
      "gid": 4908,
      "ha": 4909,
      "hu": 4910,
      "hen": 4911,
      "hes": 4912,
      "hal": 4913,
      "house": 4914,
      "iers": 4915,
      "iable": 4916,
      "ios": 4917,
      "ipp": 4918,
      "iated": 4919,
      "jo": 4920,
      "jerk": 4921,
      "jointed": 4922,
      "lor": 4923,
      "length": 4924,
      "mi": 4925,
      "mill": 4926,
      "mitt": 4927,
      "more": 4928,
      "member": 4929,
      "nia": 4930,
      "notic": 4931,
      "ox": 4932,
      "pire": 4933,
      "paced": 4934,
      "prise": 4935,
      "rat": 4936,
      "rum": 4937,
      "rating": 4938,
      "ruci": 4939,
      "sai": 4940,
      "tly": 4941,
      "turn": 4942,
      "uf": 4943,
      "uation": 4944,
      "vity": 4945,
      "vance": 4946,
      "wone": 4947,
      "xx": 4948,
      "yl": 4949,
      "zed": 4950,
      "zog": 4951,
      "Ġven": 4952,
      "Ġten": 4953,
      "Ġtend": 4954,
      "Ġtiny": 4955,
      "Ġtsai": 4956,
      "Ġaustr": 4957,
      "Ġthir": 4958,
      "Ġthumbs": 4959,
      "Ġsly": 4960,
      "Ġske": 4961,
      "Ġsie": 4962,
      "Ġsend": 4963,
      "Ġsold": 4964,
      "Ġsix": 4965,
      "Ġod": 4966,
      "Ġow": 4967,
      "ites": 4968,
      "itor": 4969,
      "itions": 4970,
      "resh": 4971,
      "enom": 4972,
      "enry": 4973,
      "Ġfing": 4974,
      "Ġfable": 4975,
      "Ġfaster": 4976,
      "Ġfizz": 4977,
      "Ġmud": 4978,
      "Ġmary": 4979,
      "Ġmcc": 4980,
      "Ġmisf": 4981,
      "iso": 4982,
      "Ġwat": 4983,
      "Ġwra": 4984,
      "Ġwest": 4985,
      "ators": 4986,
      "Ġcath": 4987,
      "Ġciv": 4988,
      "Ġcock": 4989,
      "Ġcorn": 4990,
      "Ġcaught": 4991,
      "Ġcaine": 4992,
      "Ġbes": 4993,
      "Ġble": 4994,
      "Ġbard": 4995,
      "Ġbour": 4996,
      "Ġbang": 4997,
      "Ġbug": 4998,
      "Ġbread": 4999,
      "Ġbuck": 5000,
      "Ġbase": 5001,
      "Ġanth": 5002,
      "Ġanne": 5003,
      "Ġpun": 5004,
      "Ġpse": 5005,
      "Ġpage": 5006,
      "Ġpale": 5007,
      "Ġporn": 5008,
      "oul": 5009,
      "aning": 5010,
      "angh": 5011,
      "anny": 5012,
      "Ġhup": 5013,
      "Ġhong": 5014,
      "Ġhallow": 5015,
      "Ġhenry": 5016,
      "Ġdong": 5017,
      "Ġdies": 5018,
      "Ġdying": 5019,
      "Ġdaw": 5020,
      "Ġdrop": 5021,
      "arat": 5022,
      "Ġlane": 5023,
      "Ġlends": 5024,
      "ica": 5025,
      "icy": 5026,
      "icing": 5027,
      "ilted": 5028,
      "Ġinse": 5029,
      "Ġinane": 5030,
      "Ġinherent": 5031,
      "Ġtool": 5032,
      "Ġnair": 5033,
      "Ġnomination": 5034,
      "Ġevid": 5035,
      "Ġeager": 5036,
      "lete": 5037,
      "Ġisland": 5038,
      "Ġisrael": 5039,
      "Ġgid": 5040,
      "Ġgig": 5041,
      "Ġgall": 5042,
      "elie": 5043,
      "ctim": 5044,
      "uted": 5045,
      "stop": 5046,
      "Ġstu": 5047,
      "Ġstick": 5048,
      "Ġreass": 5049,
      "Ġreli": 5050,
      "Ġreno": 5051,
      "imps": 5052,
      "ulate": 5053,
      "Ġbew": 5054,
      "Ġwhol": 5055,
      "ridden": 5056,
      "Ġformer": 5057,
      "ada": 5058,
      "essions": 5059,
      "Ġsuited": 5060,
      "search": 5061,
      "Ġali": 5062,
      "Ġlie": 5063,
      "Ġlips": 5064,
      "Ġunm": 5065,
      "Ġunrel": 5066,
      "Ġunlikable": 5067,
      "americ": 5068,
      "Ġjud": 5069,
      "Ġjew": 5070,
      "thy": 5071,
      "idt": 5072,
      "iding": 5073,
      "idel": 5074,
      "iders": 5075,
      "Ġshr": 5076,
      "Ġshake": 5077,
      "Ġshrew": 5078,
      "Ġshangh": 5079,
      "umin": 5080,
      "umps": 5081,
      "usal": 5082,
      "usions": 5083,
      "Ġenh": 5084,
      "Ġens": 5085,
      "urous": 5086,
      "urance": 5087,
      "Ġexagger": 5088,
      "outs": 5089,
      "aki": 5090,
      "Ġnote": 5091,
      "Ġnotion": 5092,
      "Ġnotorious": 5093,
      "Ġrub": 5094,
      "Ġritch": 5095,
      "Ġrote": 5096,
      "Ġdefi": 5097,
      "Ġdeeds": 5098,
      "isters": 5099,
      "Ġconven": 5100,
      "Ġconvey": 5101,
      "Ġconsequ": 5102,
      "antial": 5103,
      "Ġscare": 5104,
      "Ġneo": 5105,
      "Ġkur": 5106,
      "Ġkong": 5107,
      "arts": 5108,
      "pez": 5109,
      "ateau": 5110,
      "Ġfrance": 5111,
      "Ġsole": 5112,
      "Ġheight": 5113,
      "opic": 5114,
      "ophy": 5115,
      "Ġvit": 5116,
      "Ġvol": 5117,
      "Ġvint": 5118,
      "Ġvital": 5119,
      "Ġspr": 5120,
      "Ġspin": 5121,
      "Ġspare": 5122,
      "Ġimage": 5123,
      "udo": 5124,
      "pton": 5125,
      "Ġlect": 5126,
      "Ġleigh": 5127,
      "acks": 5128,
      "acked": 5129,
      "Ġlopez": 5130,
      "Ġclin": 5131,
      "Ġclause": 5132,
      "Ġfundament": 5133,
      "Ġamid": 5134,
      "pert": 5135,
      "pered": 5136,
      "Ġflesh": 5137,
      "Ġnostal": 5138,
      "Ġdirects": 5139,
      "Ġdirecting": 5140,
      "Ġtrust": 5141,
      "Ġtrite": 5142,
      "ultane": 5143,
      "inee": 5144,
      "Ġweeks": 5145,
      "forward": 5146,
      "Ġarrest": 5147,
      "Ġadvantage": 5148,
      "Ġanybody": 5149,
      "Ġcomedian": 5150,
      "Ġrodrig": 5151,
      "Ġblast": 5152,
      "Ġblank": 5153,
      "oses": 5154,
      "Ġmug": 5155,
      "Ġempire": 5156,
      "Ġdisg": 5157,
      "Ġdisjointed": 5158,
      "Ġslugg": 5159,
      "Ġray": 5160,
      "Ġrace": 5161,
      "Ġmeat": 5162,
      "Ġmeasure": 5163,
      "Ġmeasured": 5164,
      "Ġtwenty": 5165,
      "ensely": 5166,
      "Ġsubl": 5167,
      "Ġsubpl": 5168,
      "Ġsubculture": 5169,
      "Ġsmith": 5170,
      "Ġdramat": 5171,
      "Ġgender": 5172,
      "Ġintern": 5173,
      "ached": 5174,
      "Ġherzog": 5175,
      "Ġbrother": 5176,
      "Ġendlessly": 5177,
      "Ġholm": 5178,
      "renal": 5179,
      "Ġserve": 5180,
      "Ġstring": 5181,
      "Ġteeth": 5182,
      "Ġcontext": 5183,
      "Ġundercut": 5184,
      "Ġunderstated": 5185,
      "Ġmatters": 5186,
      "Ġmatinee": 5187,
      "Ġseeking": 5188,
      "osterous": 5189,
      "Ġaggress": 5190,
      "Ġcolors": 5191,
      "Ġcolumb": 5192,
      "othes": 5193,
      "Ġtradition": 5194,
      "Ġtrapped": 5195,
      "Ġtradem": 5196,
      "Ġfamous": 5197,
      "Ġplotted": 5198,
      "Ġyearning": 5199,
      "versity": 5200,
      "Ġarts": 5201,
      "Ġartif": 5202,
      "Ġartists": 5203,
      "Ġresour": 5204,
      "Ġresolutely": 5205,
      "Ġparts": 5206,
      "Ġmyself": 5207,
      "Ġcrimes": 5208,
      "Ġshoulders": 5209,
      "Ġattitude": 5210,
      "Ġsimilar": 5211,
      "Ġsimultane": 5212,
      "aughter": 5213,
      "Ġhumorless": 5214,
      "Ġoblig": 5215,
      "cipl": 5216,
      "Ġdownbeat": 5217,
      "Ġcreation": 5218,
      "Ġclean": 5219,
      "lier": 5220,
      "Ġterm": 5221,
      "scale": 5222,
      "Ġengage": 5223,
      "Ġdiversion": 5224,
      "ibrium": 5225,
      "Ġkidman": 5226,
      "Ġkiddie": 5227,
      "Ġcover": 5228,
      "Ġexcruci": 5229,
      "ission": 5230,
      "Ġcapacity": 5231,
      "Ġpleasing": 5232,
      "Ġcarried": 5233,
      "Ġcarvey": 5234,
      "vidual": 5235,
      "Ġtalky": 5236,
      "Ġphys": 5237,
      "Ġphenom": 5238,
      "Ġunflin": 5239,
      "Ġconsum": 5240,
      "Ġplayers": 5241,
      "Ġelabor": 5242,
      "Ġdepict": 5243,
      "Ġturning": 5244,
      "Ġextended": 5245,
      "Ġesther": 5246,
      "Ġiron": 5247,
      "Ġgrab": 5248,
      "Ġgrade": 5249,
      "Ġkeeping": 5250,
      "Ġbrosn": 5251,
      "Ġ21": 5252,
      "Ġinstantly": 5253,
      "Ġinstinct": 5254,
      "Ġeduc": 5255,
      "Ġbecoming": 5256,
      "Ġacad": 5257,
      "Ġmorality": 5258,
      "Ġhoot": 5259,
      "Ġreput": 5260,
      "vino": 5261,
      "Ġyounger": 5262,
      "Ġtouched": 5263,
      "Ġswallow": 5264,
      "spirited": 5265,
      "Ġzero": 5266,
      "Ġhandled": 5267,
      "Ġdemanding": 5268,
      "emption": 5269,
      "Ġchildhood": 5270,
      "Ġportray": 5271,
      "Ġfrida": 5272,
      "Ġconfident": 5273,
      "conom": 5274,
      "conceived": 5275,
      "Ġwitless": 5276,
      "Ġstarted": 5277,
      "Ġmonsters": 5278,
      "Ġmasterfully": 5279,
      "Ġbuilt": 5280,
      "Ġterrifying": 5281,
      "Ġspirited": 5282,
      "quee": 5283,
      "Ġbarrel": 5284,
      "Ġcleverly": 5285,
      "Ġboom": 5286,
      "Ġboasts": 5287,
      "Ġharm": 5288,
      "Ġharris": 5289,
      "Ġharrowing": 5290,
      "Ġdelights": 5291,
      "Ġtransfor": 5292,
      "ographic": 5293,
      "ographical": 5294,
      "Ġengaged": 5295,
      "opped": 5296,
      "Ġparable": 5297,
      "ifying": 5298,
      "Ġhelps": 5299,
      "Ġrichly": 5300,
      "Ġleaden": 5301,
      "Ġpopular": 5302,
      "Ġodds": 5303,
      "Ġquirks": 5304,
      "Ġteenage": 5305,
      "Ġfreshness": 5306,
      "Ġfollows": 5307,
      "Ġletting": 5308,
      "Ġpastiche": 5309,
      "Ġnorm": 5310,
      "Ġambition": 5311,
      "Ġachingly": 5312,
      "Ġwalked": 5313,
      "Ġwinner": 5314,
      "Ġdaily": 5315,
      "Ġequal": 5316,
      "Ġredemption": 5317,
      "Ġbehold": 5318,
      "Ġdramatically": 5319,
      "Ġreasonably": 5320,
      "ificent": 5321,
      "ification": 5322,
      "Ġfinely": 5323,
      "Ġdeadpan": 5324,
      "Ġcomplexity": 5325,
      "Ġsouls": 5326,
      "Ġsoulful": 5327,
      "Ġdrum": 5328,
      "ettes": 5329,
      "Ġproblematic": 5330,
      "Ġurge": 5331,
      "Ġstrikes": 5332,
      "Ġlively": 5333,
      "Ġexceptionally": 5334,
      "Ġbreaks": 5335,
      "Ġconvince": 5336,
      "Ġdogs": 5337,
      "Ġcombined": 5338,
      "going": 5339,
      "Ġstraightforward": 5340,
      "Ġfantasies": 5341,
      "Ġsevere": 5342,
      "Ġescapism": 5343,
      "Ġsquare": 5344,
      "Ġlimited": 5345,
      "Ġbringing": 5346,
      "Ġtragedies": 5347,
      "Ġcorny": 5348,
      "Ġshocking": 5349,
      "Ġcollabor": 5350,
      "Ġcollapses": 5351,
      "Ġcredible": 5352,
      "Ġdelivering": 5353,
      "Ġoccasional": 5354,
      "Ġastound": 5355,
      "Ġantwone": 5356,
      "Ġdrive": 5357,
      "Ġstunt": 5358,
      "Ġdeveloped": 5359,
      "Ġgrandeur": 5360,
      "Ġxxx": 5361,
      "Ġfigures": 5362,
      "Ġphilip": 5363,
      "Ġfights": 5364,
      "Ġcopy": 5365,
      "Ġnightm": 5366,
      "Ġuncertain": 5367,
      "Ġuncanny": 5368,
      "Ġfrustration": 5369,
      "Ġtechnical": 5370,
      "Ġessence": 5371,
      "Ġsorvino": 5372,
      "Ġmerit": 5373,
      "Ġunbelie": 5374,
      "Ġhype": 5375,
      "Ġinvest": 5376,
      "Ġmovements": 5377,
      "Ġforceful": 5378,
      "Ġsparkling": 5379,
      "Ġinspiration": 5380,
      "Ġtears": 5381,
      "Ġbusy": 5382,
      "Ġreleased": 5383,
      "Ġvariety": 5384,
      "Ġlegged": 5385,
      "Ġcurious": 5386,
      "Ġcuriosity": 5387,
      "Ġpacked": 5388,
      "Ġencoura": 5389,
      "Ġfollowing": 5390,
      "Ġsympathetic": 5391,
      "Ġcelebrates": 5392,
      "grade": 5393,
      "Ġaimed": 5394,
      "Ġghetto": 5395,
      "Ġrewards": 5396,
      "Ġprimarily": 5397,
      "Ġsavvy": 5398,
      "Ġmartial": 5399,
      "Ġbogdan": 5400,
      "Ġshooting": 5401,
      "Ġfaithful": 5402,
      "Ġphotographed": 5403,
      "Ġabsurdity": 5404,
      "Ġenthusiastic": 5405,
      "board": 5406,
      "Ġchanges": 5407,
      "Ġ50": 5408,
      "Ġ51": 5409,
      "Ġethnic": 5410,
      "Ġpredecessors": 5411,
      "Ġferr": 5412,
      "Ġbodies": 5413,
      "Ġfills": 5414,
      "Ġcomfortable": 5415,
      "sequential": 5416,
      "Ġarrives": 5417,
      "Ġbrutal": 5418,
      "Ġbrutally": 5419,
      "Ġsketchy": 5420,
      "known": 5421,
      "powerment": 5422,
      "Ġsinks": 5423,
      "Ġlanguage": 5424,
      "Ġconduct": 5425,
      "Ġconstant": 5426,
      "Ġpreposterous": 5427,
      "Ġdiscovery": 5428,
      "Ġschmalt": 5429,
      "Ġschmidt": 5430,
      "Ġdrawing": 5431,
      "Ġtranscends": 5432,
      "Ġastonishingly": 5433,
      "ville": 5434,
      "Ġsara": 5435,
      "Ġponderous": 5436,
      "Ġrequired": 5437,
      "Ġdeceptively": 5438,
      "Ġappreciate": 5439,
      "falls": 5440,
      "ulsive": 5441,
      "Ġrandom": 5442,
      "Ġlosing": 5443,
      "Ġrooting": 5444,
      "Ġdispos": 5445,
      "Ġrecycled": 5446,
      "Ġdescribe": 5447,
      "Ġsanctim": 5448,
      "Ġwestern": 5449,
      "oriented": 5450,
      "Ġdomestic": 5451,
      "Ġdreadful": 5452,
      "Ġlingering": 5453,
      "Ġunforced": 5454,
      "idden": 5455,
      "Ġintegrity": 5456,
      "Ġfeaturing": 5457,
      "ploitation": 5458,
      "Ġfluid": 5459,
      "Ġconspira": 5460,
      "Ġtremend": 5461,
      "notch": 5462,
      "Ġbaffling": 5463,
      "Ġdvd": 5464,
      "Ġknew": 5465,
      "Ġvampire": 5466,
      "Ġpreachy": 5467,
      "Ġinsanely": 5468,
      "Ġindividual": 5469,
      "Ġdetermination": 5470,
      "Ġsacrific": 5471,
      "Ġunintentionally": 5472,
      "Ġsilliness": 5473,
      "Ġbullets": 5474,
      "Ġanalyze": 5475,
      "Ġhartley": 5476,
      "Ġevokes": 5477,
      "Ġgerman": 5478,
      "Ġjacqu": 5479,
      "Ġconcert": 5480,
      "Ġconversations": 5481,
      "Ġintricate": 5482,
      "Ġvincent": 5483,
      "Ġstrictly": 5484,
      "Ġinconsequential": 5485,
      "Ġzeal": 5486,
      "Ġmagnificent": 5487,
      "rupt": 5488,
      "Ġcasual": 5489,
      "Ġcategory": 5490,
      "Ġevelyn": 5491,
      "Ġchicago": 5492,
      "Ġscooby": 5493,
      "Ġnecessarily": 5494,
      "Ġarnold": 5495,
      "Ġcomparison": 5496,
      "Ġcontroversy": 5497,
      "Ġpeculiar": 5498,
      "Ġafrican": 5499,
      "Ġsnipes": 5500,
      "Ġimprobable": 5501,
      "Ġindependent": 5502,
      "Ġrollerball": 5503,
      "Ġclumsily": 5504,
      "Ġenvironment": 5505,
      "Ġsoldiers": 5506,
      "Ġpseudo": 5507,
      "Ġhuppert": 5508,
      "Ġhalloween": 5509,
      "Ġwholly": 5510,
      "Ġshrewd": 5511,
      "Ġshanghai": 5512,
      "Ġritchie": 5513,
      "Ġvintage": 5514,
      "Ġsluggish": 5515,
      "Ġtrademark": 5516,
      "Ġartifice": 5517,
      "Ġsimultaneously": 5518,
      "Ġphenomen": 5519,
      "Ġunflinching": 5520,
      "Ġelaborate": 5521,
      "Ġbrosnan": 5522,
      "19": 5523,
      "aus": 5524,
      "aque": 5525,
      "bert": 5526,
      "bage": 5527,
      "bound": 5528,
      "born": 5529,
      "bbled": 5530,
      "cle": 5531,
      "cid": 5532,
      "card": 5533,
      "cingly": 5534,
      "dom": 5535,
      "duction": 5536,
      "eed": 5537,
      "eff": 5538,
      "fan": 5539,
      "fri": 5540,
      "fig": 5541,
      "face": 5542,
      "faced": 5543,
      "filling": 5544,
      "gen": 5545,
      "gel": 5546,
      "gue": 5547,
      "gically": 5548,
      "gger": 5549,
      "gia": 5550,
      "ggy": 5551,
      "hum": 5552,
      "iful": 5553,
      "iac": 5554,
      "ians": 5555,
      "ified": 5556,
      "jud": 5557,
      "kh": 5558,
      "ls": 5559,
      "lock": 5560,
      "luster": 5561,
      "matic": 5562,
      "nat": 5563,
      "ok": 5564,
      "och": 5565,
      "oved": 5566,
      "pic": 5567,
      "pent": 5568,
      "pion": 5569,
      "press": 5570,
      "rity": 5571,
      "rors": 5572,
      "set": 5573,
      "tv": 5574,
      "tes": 5575,
      "too": 5576,
      "tale": 5577,
      "talk": 5578,
      "ucial": 5579,
      "uced": 5580,
      "urope": 5581,
      "van": 5582,
      "vall": 5583,
      "wis": 5584,
      "wan": 5585,
      "with": 5586,
      "well": 5587,
      "witted": 5588,
      "wrenching": 5589,
      "za": 5590,
      "zzy": 5591,
      "Ġ6": 5592,
      "Ġq": 5593,
      "Ġtor": 5594,
      "Ġton": 5595,
      "Ġtab": 5596,
      "Ġtart": 5597,
      "Ġtaut": 5598,
      "Ġtax": 5599,
      "Ġtatt": 5600,
      "Ġtamb": 5601,
      "Ġaes": 5602,
      "Ġthick": 5603,
      "Ġthreat": 5604,
      "Ġthorn": 5605,
      "Ġsed": 5606,
      "Ġsake": 5607,
      "Ġsane": 5608,
      "Ġsisters": 5609,
      "Ġsquee": 5610,
      "erun": 5611,
      "erid": 5612,
      "Ġoo": 5613,
      "Ġou": 5614,
      "ita": 5615,
      "itr": 5616,
      "itter": 5617,
      "rey": 5618,
      "Ġfly": 5619,
      "Ġfro": 5620,
      "Ġfathers": 5621,
      "Ġfoster": 5622,
      "Ġfoul": 5623,
      "Ġmam": 5624,
      "isse": 5625,
      "iscent": 5626,
      "isfied": 5627,
      "Ġwid": 5628,
      "Ġwake": 5629,
      "Ġwend": 5630,
      "Ġcram": 5631,
      "Ġcub": 5632,
      "Ġbon": 5633,
      "Ġbill": 5634,
      "Ġbank": 5635,
      "Ġanom": 5636,
      "Ġanton": 5637,
      "esc": 5638,
      "escap": 5639,
      "oning": 5640,
      "Ġpom": 5641,
      "Ġpac": 5642,
      "Ġpink": 5643,
      "Ġpays": 5644,
      "Ġpier": 5645,
      "Ġpants": 5646,
      "Ġplym": 5647,
      "ouge": 5648,
      "oubt": 5649,
      "Ġhan": 5650,
      "Ġhers": 5651,
      "Ġhast": 5652,
      "Ġhos": 5653,
      "Ġhang": 5654,
      "Ġhost": 5655,
      "Ġhitting": 5656,
      "Ġdum": 5657,
      "Ġdance": 5658,
      "Ġdaring": 5659,
      "ara": 5660,
      "arian": 5661,
      "ales": 5662,
      "alia": 5663,
      "Ġlion": 5664,
      "Ġlust": 5665,
      "Ġlower": 5666,
      "Ġluc": 5667,
      "ication": 5668,
      "iled": 5669,
      "ilarly": 5670,
      "iliar": 5671,
      "ilibrium": 5672,
      "Ġinject": 5673,
      "Ġinoff": 5674,
      "Ġinescap": 5675,
      "Ġtoback": 5676,
      "omnia": 5677,
      "Ġnut": 5678,
      "Ġnet": 5679,
      "Ġnap": 5680,
      "Ġet": 5681,
      "Ġeat": 5682,
      "Ġeconom": 5683,
      "Ġeurope": 5684,
      "Ġgory": 5685,
      "Ġgore": 5686,
      "elle": 5687,
      "Ġmol": 5688,
      "Ġmoon": 5689,
      "stem": 5690,
      "otting": 5691,
      "Ġstation": 5692,
      "Ġsticks": 5693,
      "Ġstiff": 5694,
      "Ġstagger": 5695,
      "Ġstilted": 5696,
      "Ġrever": 5697,
      "Ġreject": 5698,
      "Ġreaction": 5699,
      "Ġrelevant": 5700,
      "etically": 5701,
      "immer": 5702,
      "ghan": 5703,
      "ray": 5704,
      "cher": 5705,
      "chio": 5706,
      "ularly": 5707,
      "Ġbear": 5708,
      "Ġfilling": 5709,
      "Ġassem": 5710,
      "Ġforces": 5711,
      "Ġchur": 5712,
      "Ġchore": 5713,
      "Ġchord": 5714,
      "Ġchief": 5715,
      "Ġchases": 5716,
      "Ġchills": 5717,
      "Ġchateau": 5718,
      "Ġsudden": 5719,
      "Ġsupre": 5720,
      "Ġaltogether": 5721,
      "Ġlikable": 5722,
      "Ġunner": 5723,
      "Ġuncomm": 5724,
      "abit": 5725,
      "Ġjan": 5726,
      "Ġjun": 5727,
      "Ġjaw": 5728,
      "Ġjudd": 5729,
      "terest": 5730,
      "Ġseven": 5731,
      "Ġsemi": 5732,
      "Ġshre": 5733,
      "Ġshelf": 5734,
      "Ġshines": 5735,
      "Ġsherid": 5736,
      "emes": 5737,
      "emed": 5738,
      "umul": 5739,
      "estyle": 5740,
      "urban": 5741,
      "ousness": 5742,
      "cks": 5743,
      "akable": 5744,
      "akingly": 5745,
      "Ġrh": 5746,
      "Ġru": 5747,
      "Ġrat": 5748,
      "Ġrum": 5749,
      "Ġround": 5750,
      "Ġrings": 5751,
      "Ġrug": 5752,
      "Ġrank": 5753,
      "Ġrude": 5754,
      "Ġrising": 5755,
      "Ġranks": 5756,
      "Ġrouge": 5757,
      "Ġdeuces": 5758,
      "quiet": 5759,
      "Ġconco": 5760,
      "Ġdoor": 5761,
      "Ġdope": 5762,
      "Ġdoses": 5763,
      "Ġscor": 5764,
      "Ġscattered": 5765,
      "Ġneil": 5766,
      "Ġneigh": 5767,
      "aping": 5768,
      "elled": 5769,
      "Ġka": 5770,
      "Ġkill": 5771,
      "Ġkilled": 5772,
      "pecc": 5773,
      "actured": 5774,
      "Ġprospect": 5775,
      "igo": 5776,
      "Ġfeathers": 5777,
      "dead": 5778,
      "ortions": 5779,
      "Ġvast": 5780,
      "Ġspan": 5781,
      "Ġspont": 5782,
      "Ġimitation": 5783,
      "Ġimpecc": 5784,
      "Ġprevent": 5785,
      "Ġprecise": 5786,
      "udge": 5787,
      "Ġorch": 5788,
      "Ġleon": 5789,
      "herence": 5790,
      "Ġclue": 5791,
      "Ġclub": 5792,
      "Ġclaust": 5793,
      "Ġclothes": 5794,
      "Ġoutstanding": 5795,
      "ective": 5796,
      "Ġmanuf": 5797,
      "Ġflour": 5798,
      "Ġflavor": 5799,
      "Ġnoble": 5800,
      "Ġnoise": 5801,
      "Ġnobody": 5802,
      "Ġweep": 5803,
      "Ġupper": 5804,
      "ford": 5805,
      "aude": 5806,
      "Ġadams": 5807,
      "Ġadvert": 5808,
      "Ġadrenal": 5809,
      "Ġjustify": 5810,
      "ogy": 5811,
      "Ġcomprom": 5812,
      "Ġcompreh": 5813,
      "Ġsomebody": 5814,
      "Ġrohmer": 5815,
      "ours": 5816,
      "oding": 5817,
      "Ġblat": 5818,
      "Ġblame": 5819,
      "Ġevening": 5820,
      "Ġcannes": 5821,
      "Ġoverlong": 5822,
      "Ġperformed": 5823,
      "ensical": 5824,
      "Ġempowerment": 5825,
      "Ġdiscon": 5826,
      "Ġdiscer": 5827,
      "Ġdisquiet": 5828,
      "Ġslo": 5829,
      "ization": 5830,
      "Ġrain": 5831,
      "Ġracial": 5832,
      "Ġraised": 5833,
      "Ġmexic": 5834,
      "Ġrival": 5835,
      "Ġsubvers": 5836,
      "Ġimpost": 5837,
      "Ġimperson": 5838,
      "intention": 5839,
      "Ġsurren": 5840,
      "Ġintermitt": 5841,
      "ache": 5842,
      "Ġinsuff": 5843,
      "Ġinsomnia": 5844,
      "Ġbrand": 5845,
      "Ġbruck": 5846,
      "Ġendure": 5847,
      "Ġholof": 5848,
      "Ġhollow": 5849,
      "shall": 5850,
      "Ġserving": 5851,
      "athan": 5852,
      "Ġscreening": 5853,
      "Ġwash": 5854,
      "Ġteach": 5855,
      "Ġteleg": 5856,
      "occhio": 5857,
      "ashedly": 5858,
      "Ġnews": 5859,
      "Ġnewcom": 5860,
      "Ġseek": 5861,
      "Ġaging": 5862,
      "Ġtrav": 5863,
      "Ġpeek": 5864,
      "Ġaudacious": 5865,
      "Ġartistic": 5866,
      "Ġarticul": 5867,
      "Ġvisit": 5868,
      "Ġpartly": 5869,
      "Ġpartners": 5870,
      "Ġ13": 5871,
      "Ġ100": 5872,
      "Ġproud": 5873,
      "Ġeffic": 5874,
      "Ġgrat": 5875,
      "Ġgrating": 5876,
      "Ġgrasp": 5877,
      "Ġwarri": 5878,
      "Ġfredd": 5879,
      "Ġfreeman": 5880,
      "Ġlonging": 5881,
      "Ġcrucial": 5882,
      "Ġattal": 5883,
      "Ġsimone": 5884,
      "Ġsimplic": 5885,
      "Ġsimilarly": 5886,
      "Ġgib": 5887,
      "Ġjoel": 5888,
      "cient": 5889,
      "aware": 5890,
      "Ġtried": 5891,
      "Ġtriangle": 5892,
      "Ġshowing": 5893,
      "Ġknown": 5894,
      "Ġthrillers": 5895,
      "Ġincons": 5896,
      "Ġincisive": 5897,
      "Ġscenery": 5898,
      "umbo": 5899,
      "umbles": 5900,
      "Ġspeak": 5901,
      "Ġspeaking": 5902,
      "Ġspeaks": 5903,
      "Ġspecul": 5904,
      "Ġenjoyably": 5905,
      "ibal": 5906,
      "Ġcoherent": 5907,
      "Ġcohes": 5908,
      "Ġkinda": 5909,
      "Ġreco": 5910,
      "Ġpretensions": 5911,
      "Ġhighlight": 5912,
      "Ġlackluster": 5913,
      "Ġrelig": 5914,
      "Ġrelief": 5915,
      "Ġcharmless": 5916,
      "aze": 5917,
      "Ġglum": 5918,
      "Ġtales": 5919,
      "Ġappalling": 5920,
      "Ġphon": 5921,
      "Ġconserv": 5922,
      "Ġcheese": 5923,
      "Ġsweeping": 5924,
      "Ġwanting": 5925,
      "Ġirish": 5926,
      "Ġironic": 5927,
      "Ġbrooding": 5928,
      "Ġinstall": 5929,
      "Ġedgy": 5930,
      "Ġsincer": 5931,
      "Ġpolished": 5932,
      "dities": 5933,
      "Ġsolaris": 5934,
      "Ġrefusal": 5935,
      "reads": 5936,
      "Ġmorning": 5937,
      "Ġmorvern": 5938,
      "Ġsweetness": 5939,
      "Ġmemories": 5940,
      "Ġelev": 5941,
      "Ġelect": 5942,
      "Ġstein": 5943,
      "Ġsteve": 5944,
      "Ġstead": 5945,
      "Ġsteers": 5946,
      "Ġsteam": 5947,
      "Ġdistaste": 5948,
      "Ġsword": 5949,
      "Ġpaints": 5950,
      "Ġsupernat": 5951,
      "Ġcultures": 5952,
      "Ġdemons": 5953,
      "Ġdemented": 5954,
      "Ġportrays": 5955,
      "volves": 5956,
      "Ġconfid": 5957,
      "Ġfinest": 5958,
      "Ġsumm": 5959,
      "Ġaccent": 5960,
      "Ġaccents": 5961,
      "Ġaccident": 5962,
      "Ġsaying": 5963,
      "Ġmonot": 5964,
      "Ġburied": 5965,
      "Ġgenerous": 5966,
      "Ġgenerate": 5967,
      "Ġgenerates": 5968,
      "Ġterribly": 5969,
      "Ġharry": 5970,
      "Ġharsh": 5971,
      "Ġhappiness": 5972,
      "Ġhappened": 5973,
      "Ġfamilial": 5974,
      "Ġfamilies": 5975,
      "Ġmidnight": 5976,
      "Ġexposition": 5977,
      "Ġmax": 5978,
      "Ġ197": 5979,
      "opping": 5980,
      "Ġvideos": 5981,
      "Ġparano": 5982,
      "Ġpresented": 5983,
      "ifer": 5984,
      "Ġheld": 5985,
      "Ġsuccumb": 5986,
      "Ġundoubt": 5987,
      "Ġricher": 5988,
      "Ġimpressed": 5989,
      "cover": 5990,
      "Ġwoe": 5991,
      "Ġsystem": 5992,
      "Ġfactor": 5993,
      "Ġmurky": 5994,
      "Ġinfidel": 5995,
      "Ġadventurous": 5996,
      "Ġsatisfy": 5997,
      "Ġopaque": 5998,
      "Ġbegin": 5999,
      "Ġinspire": 6000,
      "heimer": 6001,
      "Ġdahmer": 6002,
      "Ġequilibrium": 6003,
      "Ġpolitically": 6004,
      "Ġsolidly": 6005,
      "Ġcontrib": 6006,
      "Ġhonesty": 6007,
      "Ġtreats": 6008,
      "Ġangu": 6009,
      "Ġangels": 6010,
      "Ġpsychologically": 6011,
      "Ġbridge": 6012,
      "Ġgriff": 6013,
      "Ġheroes": 6014,
      "Ġheroine": 6015,
      "grath": 6016,
      "Ġsinging": 6017,
      "Ġmisery": 6018,
      "Ġwave": 6019,
      "Ġreggio": 6020,
      "Ġdevices": 6021,
      "Ġwindtalk": 6022,
      "Ġunderstands": 6023,
      "Ġextrem": 6024,
      "Ġsandra": 6025,
      "Ġtopic": 6026,
      "Ġweirdly": 6027,
      "Ġweirdness": 6028,
      "Ġtrek": 6029,
      "Ġpatient": 6030,
      "Ġpotent": 6031,
      "Ġhoped": 6032,
      "Ġdouble": 6033,
      "Ġfancy": 6034,
      "Ġnoneth": 6035,
      "Ġdisappointment": 6036,
      "Ġseconds": 6037,
      "Ġearnestness": 6038,
      "Ġtarant": 6039,
      "Ġsquanders": 6040,
      "Ġpayne": 6041,
      "Ġpathology": 6042,
      "Ġlatter": 6043,
      "Ġlimit": 6044,
      "Ġconsidered": 6045,
      "Ġcorner": 6046,
      "Ġpersonalities": 6047,
      "balls": 6048,
      "ienced": 6049,
      "Ġverve": 6050,
      "Ġverbal": 6051,
      "Ġproviding": 6052,
      "Ġbloody": 6053,
      "Ġbritney": 6054,
      "Ġsubstantial": 6055,
      "Ġ101": 6056,
      "Ġpulling": 6057,
      "Ġtechnically": 6058,
      "Ġtechnology": 6059,
      "Ġepisodes": 6060,
      "Ġunexpectedly": 6061,
      "Ġtasteful": 6062,
      "Ġsorry": 6063,
      "Ġsorority": 6064,
      "Ġmerchant": 6065,
      "Ġcritics": 6066,
      "Ġdancing": 6067,
      "Ġlabute": 6068,
      "Ġlabored": 6069,
      "Ġearlier": 6070,
      "Ġgangs": 6071,
      "Ġremembered": 6072,
      "Ġcontempl": 6073,
      "Ġhyper": 6074,
      "Ġgreene": 6075,
      "Ġexistence": 6076,
      "Ġintimacy": 6077,
      "Ġexpression": 6078,
      "Ġopenness": 6079,
      "Ġinspirational": 6080,
      "iffer": 6081,
      "Ġ30": 6082,
      "Ġ300": 6083,
      "Ġauthority": 6084,
      "Ġwilson": 6085,
      "Ġwilco": 6086,
      "Ġimmensely": 6087,
      "Ġlegend": 6088,
      "Ġamazingly": 6089,
      "Ġgraceful": 6090,
      "Ġelegantly": 6091,
      "Ġmediocrity": 6092,
      "attering": 6093,
      "Ġcalcul": 6094,
      "Ġballot": 6095,
      "Ġballistic": 6096,
      "Ġdenial": 6097,
      "Ġlaid": 6098,
      "Ġobservation": 6099,
      "Ġobservant": 6100,
      "Ġcelebration": 6101,
      "Ġaimless": 6102,
      "Ġcatches": 6103,
      "Ġbiopic": 6104,
      "Ġdestination": 6105,
      "Ġresonance": 6106,
      "world": 6107,
      "works": 6108,
      "Ġtimeless": 6109,
      "Ġfragment": 6110,
      "Ġpalma": 6111,
      "Ġcomplications": 6112,
      "Ġweighty": 6113,
      "Ġphilosophy": 6114,
      "Ġfix": 6115,
      "Ġgarbage": 6116,
      "Ġlifestyle": 6117,
      "Ġshapeless": 6118,
      "Ġproportions": 6119,
      "Ġbuilds": 6120,
      "Ġbuilding": 6121,
      "Ġincludes": 6122,
      "Ġauto": 6123,
      "Ġjeal": 6124,
      "Ġconcern": 6125,
      "Ġfrontal": 6126,
      "Ġcharismatic": 6127,
      "Ġsecretary": 6128,
      "Ġfavorite": 6129,
      "Ġcircuit": 6130,
      "Ġanswer": 6131,
      "Ġvictim": 6132,
      "Ġvictims": 6133,
      "Ġarrive": 6134,
      "Ġtextbook": 6135,
      "Ġguessing": 6136,
      "Ġstylistic": 6137,
      "Ġmeaningful": 6138,
      "Ġpiano": 6139,
      "Ġgoldmember": 6140,
      "Ġalienation": 6141,
      "ooping": 6142,
      "Ġunusually": 6143,
      "Ġshadow": 6144,
      "Ġshadows": 6145,
      "Ġconstantly": 6146,
      "Ġsubtit": 6147,
      "Ġdraws": 6148,
      "Ġsarandon": 6149,
      "Ġmcgrath": 6150,
      "Ġpractically": 6151,
      "Ġhypnotic": 6152,
      "Ġduke": 6153,
      "Ġduvall": 6154,
      "Ġgrey": 6155,
      "Ġjuliet": 6156,
      "Ġrussell": 6157,
      "Ġscreaming": 6158,
      "Ġimmediate": 6159,
      "Ġlocations": 6160,
      "Ġcompetent": 6161,
      "Ġrapid": 6162,
      "Ġsurrounding": 6163,
      "Ġinsulting": 6164,
      "Ġobsession": 6165,
      "girls": 6166,
      "Ġahead": 6167,
      "Ġlanes": 6168,
      "Ġclimactic": 6169,
      "Ġcloser": 6170,
      "Ġcarrying": 6171,
      "Ġfrightening": 6172,
      "Ġwonders": 6173,
      "Ġbaby": 6174,
      "Ġlayers": 6175,
      "Ġnonsense": 6176,
      "Ġnonsensical": 6177,
      "Ġshamelessly": 6178,
      "Ġenterprise": 6179,
      "Ġreminder": 6180,
      "Ġreminiscent": 6181,
      "Ġmarginal": 6182,
      "Ġembarrassment": 6183,
      "Ġresponsible": 6184,
      "Ġtaylor": 6185,
      "Ġincomprehensible": 6186,
      "Ġuncomfortable": 6187,
      "Ġenormously": 6188,
      "Ġkorea": 6189,
      "Ġfloor": 6190,
      "Ġrowdy": 6191,
      "Ġshowcase": 6192,
      "Ġambiguous": 6193,
      "Ġbuffs": 6194,
      "Ġpinocchio": 6195,
      "Ġdivine": 6196,
      "Ġinhabit": 6197,
      "Ġeastwood": 6198,
      "Ġchaotic": 6199,
      "Ġexceedingly": 6200,
      "Ġsobering": 6201,
      "Ġclooney": 6202,
      "Ġargentine": 6203,
      "Ġglossy": 6204,
      "Ġappropriate": 6205,
      "Ġtranslation": 6206,
      "Ġcontradictory": 6207,
      "familiar": 6208,
      "Ġsaga": 6209,
      "Ġsisterhood": 6210,
      "Ġmental": 6211,
      "Ġwickedly": 6212,
      "Ġhitchcock": 6213,
      "stoppers": 6214,
      "Ġallegory": 6215,
      "Ġunabashedly": 6216,
      "Ġjessica": 6217,
      "Ġconsciousness": 6218,
      "Ġorgan": 6219,
      "Ġclockstoppers": 6220,
      "Ġmechanical": 6221,
      "Ġcriminal": 6222,
      "Ġcrudup": 6223,
      "Ġminimalist": 6224,
      "Ġsatirical": 6225,
      "Ġparadiso": 6226,
      "Ġborrows": 6227,
      "Ġredundant": 6228,
      "Ġinevitable": 6229,
      "Ġsleeve": 6230,
      "Ġsubstitute": 6231,
      "Ġsophomoric": 6232,
      "Ġdismissed": 6233,
      "Ġpedestrian": 6234,
      "Ġirresistible": 6235,
      "dowell": 6236,
      "Ġwrapped": 6237,
      "Ġanthony": 6238,
      "Ġdiesel": 6239,
      "Ġdawson": 6240,
      "Ġgiddy": 6241,
      "Ġgigg": 6242,
      "Ġstuart": 6243,
      "Ġexaggerated": 6244,
      "Ġconvenient": 6245,
      "Ġconsequences": 6246,
      "Ġvitality": 6247,
      "Ġsublime": 6248,
      "Ġsubplots": 6249,
      "Ġinternational": 6250,
      "Ġacademy": 6251,
      "Ġreputation": 6252,
      "Ġharmless": 6253,
      "Ġnightmare": 6254,
      "Ġunbelievable": 6255,
      "Ġencouraging": 6256,
      "Ġbogdanovich": 6257,
      "Ġdisposable": 6258,
      "Ġtremendous": 6259,
      "Ġaesth": 6260,
      "Ġwendigo": 6261,
      "Ġpacino": 6262,
      "Ġplympton": 6263,
      "Ġherself": 6264,
      "Ġhastily": 6265,
      "Ġinoffensive": 6266,
      "Ġunnerving": 6267,
      "Ġsheridan": 6268,
      "Ġneighbor": 6269,
      "Ġspontane": 6270,
      "Ġimpeccable": 6271,
      "Ġclaustro": 6272,
      "Ġmanufactured": 6273,
      "Ġsubversive": 6274,
      "Ġimpostor": 6275,
      "intentioned": 6276,
      "Ġintermittently": 6277,
      "Ġbruckheimer": 6278,
      "Ġsimplicity": 6279,
      "Ġconservative": 6280,
      "Ġsincerity": 6281,
      "Ġsupernatural": 6282,
      "Ġundoubtedly": 6283,
      "Ġinfidelity": 6284,
      "Ġwindtalkers": 6285,
      "Ġnonetheless": 6286,
      "40": 6287,
      "aves": 6288,
      "aving": 6289,
      "bit": 6290,
      "but": 6291,
      "bum": 6292,
      "bur": 6293,
      "bod": 6294,
      "bang": 6295,
      "brow": 6296,
      "bby": 6297,
      "cam": 6298,
      "core": 6299,
      "cue": 6300,
      "cip": 6301,
      "cons": 6302,
      "cener": 6303,
      "dun": 6304,
      "ders": 6305,
      "done": 6306,
      "ev": 6307,
      "eky": 6308,
      "egger": 6309,
      "fly": 6310,
      "fem": 6311,
      "fist": 6312,
      "fight": 6313,
      "fare": 6314,
      "fice": 6315,
      "fiction": 6316,
      "filled": 6317,
      "fkin": 6318,
      "gi": 6319,
      "gers": 6320,
      "gard": 6321,
      "gie": 6322,
      "gile": 6323,
      "gener": 6324,
      "hat": 6325,
      "hill": 6326,
      "hod": 6327,
      "hip": 6328,
      "iat": 6329,
      "ius": 6330,
      "ients": 6331,
      "kum": 6332,
      "kovich": 6333,
      "lers": 6334,
      "list": 6335,
      "lling": 6336,
      "loud": 6337,
      "mor": 6338,
      "mar": 6339,
      "mak": 6340,
      "mart": 6341,
      "mull": 6342,
      "mingly": 6343,
      "master": 6344,
      "mouth": 6345,
      "oid": 6346,
      "oons": 6347,
      "pr": 6348,
      "pable": 6349,
      "pher": 6350,
      "pass": 6351,
      "post": 6352,
      "puff": 6353,
      "posed": 6354,
      "poon": 6355,
      "rion": 6356,
      "run": 6357,
      "rick": 6358,
      "rang": 6359,
      "rics": 6360,
      "rase": 6361,
      "rote": 6362,
      "ronic": 6363,
      "ser": 6364,
      "sided": 6365,
      "tis": 6366,
      "tent": 6367,
      "tun": 6368,
      "tick": 6369,
      "trip": 6370,
      "ule": 6371,
      "uber": 6372,
      "ueless": 6373,
      "uously": 6374,
      "ucing": 6375,
      "vances": 6376,
      "win": 6377,
      "wer": 6378,
      "wash": 6379,
      "yce": 6380,
      "yaz": 6381,
      "zel": 6382,
      "zpet": 6383,
      "èĬ": 6384,
      "Ġ#": 6385,
      "Ġeric": 6386,
      "Ġ\\*": 6387,
      "Ġ\\*\\*": 6388,
      "Ĵte": 6389,
      "Ġtad": 6390,
      "Ġtem": 6391,
      "Ġties": 6392,
      "Ġtep": 6393,
      "Ġtense": 6394,
      "Ġtang": 6395,
      "Ġtail": 6396,
      "Ġtorn": 6397,
      "Ġtrop": 6398,
      "Ġai": 6399,
      "Ġay": 6400,
      "Ġack": 6401,
      "Ġarb": 6402,
      "Ġapt": 6403,
      "Ġapl": 6404,
      "Ġastr": 6405,
      "Ġalex": 6406,
      "ini": 6407,
      "inent": 6408,
      "inian": 6409,
      "Ġthro": 6410,
      "Ġthrown": 6411,
      "Ġsab": 6412,
      "Ġsord": 6413,
      "Ġseld": 6414,
      "erile": 6415,
      "erfig": 6416,
      "Ġoed": 6417,
      "Ġoce": 6418,
      "Ġozpet": 6419,
      "Ġtheory": 6420,
      "ito": 6421,
      "itage": 6422,
      "itivity": 6423,
      "ene": 6424,
      "enced": 6425,
      "enstein": 6426,
      "Ġfess": 6427,
      "Ġfond": 6428,
      "Ġfits": 6429,
      "Ġfiel": 6430,
      "Ġfuri": 6431,
      "Ġfont": 6432,
      "Ġmend": 6433,
      "Ġmish": 6434,
      "Ġmib": 6435,
      "isi": 6436,
      "isk": 6437,
      "ison": 6438,
      "isput": 6439,
      "Ġwre": 6440,
      "Ġwet": 6441,
      "atisf": 6442,
      "Ġcad": 6443,
      "Ġcable": 6444,
      "Ġcook": 6445,
      "Ġcage": 6446,
      "Ġcutes": 6447,
      "Ġcopp": 6448,
      "Ġcgi": 6449,
      "Ġbud": 6450,
      "Ġbone": 6451,
      "Ġboun": 6452,
      "Ġbath": 6453,
      "Ġbible": 6454,
      "Ġbord": 6455,
      "Ġbub": 6456,
      "Ġanch": 6457,
      "Ġanime": 6458,
      "Ġanger": 6459,
      "Ġanarch": 6460,
      "inge": 6461,
      "ingers": 6462,
      "ora": 6463,
      "orrow": 6464,
      "orpor": 6465,
      "only": 6466,
      "onest": 6467,
      "Ġpy": 6468,
      "Ġpill": 6469,
      "Ġpup": 6470,
      "Ġpau": 6471,
      "Ġpep": 6472,
      "Ġpear": 6473,
      "Ġpatch": 6474,
      "Ġpry": 6475,
      "anion": 6476,
      "anth": 6477,
      "ancing": 6478,
      "anella": 6479,
      "Ġhat": 6480,
      "Ġhint": 6481,
      "Ġhane": 6482,
      "Ġhund": 6483,
      "Ġhanks": 6484,
      "Ġdar": 6485,
      "Ġdil": 6486,
      "Ġdot": 6487,
      "Ġdust": 6488,
      "Ġdime": 6489,
      "Ġdian": 6490,
      "Ġdude": 6491,
      "Ġdressed": 6492,
      "Ġanderson": 6493,
      "arious": 6494,
      "around": 6495,
      "alph": 6496,
      "alism": 6497,
      "aluable": 6498,
      "edom": 6499,
      "edel": 6500,
      "edge": 6501,
      "Ġlone": 6502,
      "Ġlark": 6503,
      "Ġlull": 6504,
      "Ġlater": 6505,
      "icion": 6506,
      "icature": 6507,
      "ilet": 6508,
      "Ġinit": 6509,
      "Ġinfect": 6510,
      "Ġinquis": 6511,
      "Ġtooth": 6512,
      "Ġtosc": 6513,
      "Ġtodd": 6514,
      "Ġtoilet": 6515,
      "Ġnel": 6516,
      "Ġnam": 6517,
      "Ġnerv": 6518,
      "Ġnames": 6519,
      "Ġnaught": 6520,
      "Ġeg": 6521,
      "Ġeis": 6522,
      "Ġech": 6523,
      "Ġears": 6524,
      "Ġego": 6525,
      "Ġecks": 6526,
      "ask": 6527,
      "lee": 6528,
      "Ġisolation": 6529,
      "Ġgoo": 6530,
      "Ġgest": 6531,
      "Ġgong": 6532,
      "Ġgond": 6533,
      "Ġgoose": 6534,
      "Ġgimm": 6535,
      "elow": 6536,
      "else": 6537,
      "ctions": 6538,
      "Ġmob": 6539,
      "Ġmoth": 6540,
      "Ġmoved": 6541,
      "Ġmoody": 6542,
      "util": 6543,
      "entiment": 6544,
      "stage": 6545,
      "stract": 6546,
      "otion": 6547,
      "othing": 6548,
      "otically": 6549,
      "Ġsting": 6550,
      "Ġstim": 6551,
      "Ġstag": 6552,
      "Ġstatic": 6553,
      "Ġstately": 6554,
      "Ġstream": 6555,
      "Ġstif": 6556,
      "unt": 6557,
      "Ġrev": 6558,
      "Ġrein": 6559,
      "Ġreas": 6560,
      "Ġreel": 6561,
      "Ġrece": 6562,
      "Ġresemble": 6563,
      "Ġreview": 6564,
      "Ġrevision": 6565,
      "etent": 6566,
      "ething": 6567,
      "ette": 6568,
      "etrating": 6569,
      "vigor": 6570,
      "imen": 6571,
      "raint": 6572,
      "rayal": 6573,
      "ches": 6574,
      "ules": 6575,
      "ulent": 6576,
      "uloid": 6577,
      "verty": 6578,
      "roo": 6579,
      "Ġwhale": 6580,
      "Ġwholes": 6581,
      "Ġwhimsy": 6582,
      "ceful": 6583,
      "Ġyidd": 6584,
      "Ġash": 6585,
      "Ġasian": 6586,
      "Ġwithers": 6587,
      "oli": 6588,
      "oll": 6589,
      "olid": 6590,
      "olate": 6591,
      "ayas": 6592,
      "ado": 6593,
      "ados": 6594,
      "Ġchap": 6595,
      "Ġchew": 6596,
      "Ġchances": 6597,
      "Ġchai": 6598,
      "Ġchiller": 6599,
      "Ġchamp": 6600,
      "Ġchoose": 6601,
      "Ġchops": 6602,
      "ĠchèĬ": 6603,
      "Ġchelse": 6604,
      "essed": 6605,
      "Ġsus": 6606,
      "Ġcomics": 6607,
      "Ġalf": 6608,
      "Ġalt": 6609,
      "Ġalas": 6610,
      "Ġalert": 6611,
      "Ġalike": 6612,
      "Ġalbum": 6613,
      "Ġbutt": 6614,
      "Ġbutter": 6615,
      "Ġlip": 6616,
      "Ġlifts": 6617,
      "Ġlibert": 6618,
      "oos": 6619,
      "irm": 6620,
      "irations": 6621,
      "irts": 6622,
      "irms": 6623,
      "Ġunap": 6624,
      "Ġunful": 6625,
      "ami": 6626,
      "abs": 6627,
      "abby": 6628,
      "abeth": 6629,
      "Ġjord": 6630,
      "Ġjane": 6631,
      "Ġjagger": 6632,
      "Ġjarring": 6633,
      "Ġjenn": 6634,
      "Ġjumble": 6635,
      "than": 6636,
      "thew": 6637,
      "thought": 6638,
      "idering": 6639,
      "tered": 6640,
      "Ġseal": 6641,
      "Ġseas": 6642,
      "Ġseats": 6643,
      "Ġshag": 6644,
      "Ġshout": 6645,
      "Ġship": 6646,
      "Ġshining": 6647,
      "ems": 6648,
      "emic": 6649,
      "ements": 6650,
      "umst": 6651,
      "ummer": 6652,
      "Ġenlight": 6653,
      "urp": 6654,
      "urally": 6655,
      "urdities": 6656,
      "Ġexit": 6657,
      "Ġexter": 6658,
      "Ġexuber": 6659,
      "ouses": 6660,
      "Ġnotable": 6661,
      "Ġnotwith": 6662,
      "Ġrating": 6663,
      "Ġrerun": 6664,
      "Ġralph": 6665,
      "Ġrules": 6666,
      "Ġabuse": 6667,
      "Ġabstract": 6668,
      "Ġdean": 6669,
      "Ġdefe": 6670,
      "Ġdeals": 6671,
      "Ġdegra": 6672,
      "Ġdevolves": 6673,
      "qui": 6674,
      "quer": 6675,
      "quet": 6676,
      "Ġconve": 6677,
      "Ġconcent": 6678,
      "Ġdose": 6679,
      "Ġdoze": 6680,
      "Ġscre": 6681,
      "Ġscot": 6682,
      "Ġscient": 6683,
      "Ġscope": 6684,
      "Ġatroc": 6685,
      "eller": 6686,
      "Ġko": 6687,
      "Ġken": 6688,
      "Ġkick": 6689,
      "Ġkath": 6690,
      "Ġkits": 6691,
      "Ġkicks": 6692,
      "Ġkah": 6693,
      "Ġkicking": 6694,
      "Ġkinn": 6695,
      "Ġkwan": 6696,
      "anda": 6697,
      "Ġintol": 6698,
      "Ġintact": 6699,
      "Ġsoft": 6700,
      "Ġsoggy": 6701,
      "ustic": 6702,
      "usters": 6703,
      "Ġalluring": 6704,
      "Ġproph": 6705,
      "Ġprofic": 6706,
      "Ġprovo": 6707,
      "Ġprogress": 6708,
      "Ġcharge": 6709,
      "Ġcharles": 6710,
      "Ġhew": 6711,
      "Ġheat": 6712,
      "Ġarea": 6713,
      "Ġplus": 6714,
      "Ġplight": 6715,
      "Ġthank": 6716,
      "Ġactual": 6717,
      "Ġactions": 6718,
      "Ġfeet": 6719,
      "opath": 6720,
      "derella": 6721,
      "venile": 6722,
      "ortant": 6723,
      "Ġvain": 6724,
      "Ġvac": 6725,
      "Ġvanity": 6726,
      "arded": 6727,
      "ardot": 6728,
      "Ġsport": 6729,
      "Ġspike": 6730,
      "Ġimit": 6731,
      "Ġprefer": 6732,
      "udy": 6733,
      "Ġperm": 6734,
      "Ġwhodun": 6735,
      "ption": 6736,
      "ptuous": 6737,
      "Ġstorylines": 6738,
      "Ġlean": 6739,
      "Ġlear": 6740,
      "Ġleather": 6741,
      "ittedly": 6742,
      "Ġlog": 6743,
      "Ġlose": 6744,
      "Ġlock": 6745,
      "Ġloving": 6746,
      "Ġlovers": 6747,
      "Ġclash": 6748,
      "Ġclueless": 6749,
      "Ġouting": 6750,
      "pled": 6751,
      "pless": 6752,
      "Ġamy": 6753,
      "Ġamar": 6754,
      "Ġamuse": 6755,
      "Ġamiable": 6756,
      "Ġmanaged": 6757,
      "iously": 6758,
      "Ġflor": 6759,
      "Ġflac": 6760,
      "Ġflower": 6761,
      "Ġflamb": 6762,
      "Ġflimsy": 6763,
      "Ġnoyce": 6764,
      "Ġdirectly": 6765,
      "Ġdirections": 6766,
      "Ġtruck": 6767,
      "Ġtricks": 6768,
      "icken": 6769,
      "Ġweigh": 6770,
      "Ġwearing": 6771,
      "Ġpool": 6772,
      "Ġpokes": 6773,
      "Ġpoverty": 6774,
      "Ġupbeat": 6775,
      "Ġque": 6776,
      "Ġarc": 6777,
      "Ġararat": 6778,
      "Ġaddict": 6779,
      "Ġadvice": 6780,
      "Ġtook": 6781,
      "Ġanyway": 6782,
      "Ġviv": 6783,
      "Ġvign": 6784,
      "endo": 6785,
      "enden": 6786,
      "Ġcompared": 6787,
      "Ġcompanion": 6788,
      "Ġrose": 6789,
      "Ġroots": 6790,
      "Ġrolling": 6791,
      "ishment": 6792,
      "Ġgooding": 6793,
      "Ġentry": 6794,
      "odge": 6795,
      "Ġblind": 6796,
      "Ġblown": 6797,
      "Ġblues": 6798,
      "Ġuseless": 6799,
      "comes": 6800,
      "Ġcann": 6801,
      "osyn": 6802,
      "Ġoffend": 6803,
      "ears": 6804,
      "earing": 6805,
      "earth": 6806,
      "Ġfeelings": 6807,
      "Ġoverst": 6808,
      "uez": 6809,
      "ensed": 6810,
      "Ġdisre": 6811,
      "Ġwaydown": 6812,
      "Ġbetrayal": 6813,
      "izabeth": 6814,
      "ipid": 6815,
      "Ġeveryday": 6816,
      "Ġdesired": 6817,
      "Ġraise": 6818,
      "Ġfaces": 6819,
      "Ġmeet": 6820,
      "Ġmeets": 6821,
      "Ġtwink": 6822,
      "phob": 6823,
      "Ġriot": 6824,
      "Ġrifkin": 6825,
      "Ġsubte": 6826,
      "Ġsmack": 6827,
      "Ġgovern": 6828,
      "Ġinterp": 6829,
      "Ġinsipid": 6830,
      "ventional": 6831,
      "berry": 6832,
      "Ġsermon": 6833,
      "atically": 6834,
      "Ġcontr": 6835,
      "ocra": 6836,
      "ocity": 6837,
      "Ġundermin": 6838,
      "Ġunderbel": 6839,
      "Ġmatte": 6840,
      "Ġmatthew": 6841,
      "Ġseeks": 6842,
      "gettable": 6843,
      "Ġagent": 6844,
      "Ġromances": 6845,
      "Ġtrain": 6846,
      "Ġtraff": 6847,
      "Ġplots": 6848,
      "Ġplotline": 6849,
      "Ġarty": 6850,
      "Ġresol": 6851,
      "Ġrescue": 6852,
      "Ġcinderella": 6853,
      "Ġprime": 6854,
      "Ġgrin": 6855,
      "Ġgrind": 6856,
      "ismo": 6857,
      "Ġcasts": 6858,
      "Ġmyst": 6859,
      "Ġfreak": 6860,
      "Ġfrequent": 6861,
      "Ġfreedom": 6862,
      "Ġlongest": 6863,
      "Ġattack": 6864,
      "Ġminute": 6865,
      "Ġaficion": 6866,
      "Ġbigelow": 6867,
      "Ġawak": 6868,
      "Ġawfully": 6869,
      "Ġtwohy": 6870,
      "uctive": 6871,
      "Ġshowgirls": 6872,
      "Ġkeen": 6873,
      "Ġknack": 6874,
      "Ġcletis": 6875,
      "Ġlaughed": 6876,
      "Ġlaughably": 6877,
      "Ġscripts": 6878,
      "Ġtermin": 6879,
      "Ġincess": 6880,
      "Ġincorpor": 6881,
      "llen": 6882,
      "Ġdocumentaries": 6883,
      "tech": 6884,
      "Ġspears": 6885,
      "Ġdiverse": 6886,
      "Ġenjoyment": 6887,
      "Ġcox": 6888,
      "Ġcobbled": 6889,
      "Ġlessons": 6890,
      "Ġexcels": 6891,
      "inson": 6892,
      "Ġrecreat": 6893,
      "Ġfarc": 6894,
      "Ġbackstage": 6895,
      "Ġhighest": 6896,
      "Ġultra": 6897,
      "Ġpleasurable": 6898,
      "Ġcarl": 6899,
      "Ġcaring": 6900,
      "Ġcarol": 6901,
      "Ġcarmen": 6902,
      "Ġglo": 6903,
      "Ġglaring": 6904,
      "Ġappet": 6905,
      "Ġscha": 6906,
      "Ġschn": 6907,
      "Ġschwar": 6908,
      "Ġscherfig": 6909,
      "Ġphony": 6910,
      "Ġphones": 6911,
      "Ġconsolation": 6912,
      "Ġconsidering": 6913,
      "Ġplayer": 6914,
      "Ġpowerpuff": 6915,
      "Ġelic": 6916,
      "Ġelling": 6917,
      "Ġelizabeth": 6918,
      "Ġdepra": 6919,
      "Ġwriters": 6920,
      "Ġhistrion": 6921,
      "Ġcheer": 6922,
      "Ġmushy": 6923,
      "Ġfewer": 6924,
      "Ġcraw": 6925,
      "Ġcraven": 6926,
      "Ġcraft": 6927,
      "Ġmargar": 6928,
      "Ġmarshall": 6929,
      "Ġindul": 6930,
      "Ġindulgent": 6931,
      "Ġindiffer": 6932,
      "Ġgrac": 6933,
      "Ġcreature": 6934,
      "ateral": 6935,
      "Ġease": 6936,
      "Ġsinister": 6937,
      "Ġpoll": 6938,
      "Ġformat": 6939,
      "Ġeffectively": 6940,
      "Ġsolutions": 6941,
      "arned": 6942,
      "Ġrefuses": 6943,
      "Ġrefresh": 6944,
      "reading": 6945,
      "Ġmorally": 6946,
      "Ġmorris": 6947,
      "Ġhole": 6948,
      "Ġhokey": 6949,
      "Ġhokum": 6950,
      "xton": 6951,
      "Ġsteal": 6952,
      "white": 6953,
      "Ġmiyaz": 6954,
      "Ġanimat": 6955,
      "Ġanimals": 6956,
      "Ġstudios": 6957,
      "Ġdecade": 6958,
      "Ġswi": 6959,
      "Ġswear": 6960,
      "Ġswitch": 6961,
      "Ġswinging": 6962,
      "Ġsuperbly": 6963,
      "èĮħl": 6964,
      "Ġpassions": 6965,
      "Ġhandful": 6966,
      "Ġdarker": 6967,
      "Ġdarkly": 6968,
      "Ġdarkness": 6969,
      "Ġabsolute": 6970,
      "Ġabsurdities": 6971,
      "Ġconfused": 6972,
      "Ġconfront": 6973,
      "Ġourselves": 6974,
      "Ġfincher": 6975,
      "Ġputting": 6976,
      "Ġsumptuous": 6977,
      "Ġsayles": 6978,
      "Ġdullest": 6979,
      "Ġuneasy": 6980,
      "Ġsenses": 6981,
      "Ġsensibilities": 6982,
      "Ġassa": 6983,
      "Ġassoc": 6984,
      "Ġassume": 6985,
      "Ġassayas": 6986,
      "Ġcapturing": 6987,
      "Ġtitles": 6988,
      "Ġsadd": 6989,
      "Ġclassics": 6990,
      "mely": 6991,
      "meets": 6992,
      "Ġbarney": 6993,
      "Ġlighting": 6994,
      "Ġcleverness": 6995,
      "Ġmedical": 6996,
      "Ġmedia": 6997,
      "Ġboat": 6998,
      "Ġboard": 6999,
      "Ġharder": 7000,
      "Ġhappily": 7001,
      "Ġhappening": 7002,
      "Ġeffortlessly": 7003,
      "Ġeyre": 7004,
      "lection": 7005,
      "Ġexpense": 7006,
      "Ġmaid": 7007,
      "Ġeventual": 7008,
      "Ġexpecting": 7009,
      "Ġtransformation": 7010,
      "Ġ193": 7011,
      "Ġ1970": 7012,
      "itched": 7013,
      "Ġbrav": 7014,
      "Ġbrave": 7015,
      "Ġbracing": 7016,
      "Ġparade": 7017,
      "theon": 7018,
      "Ġrobin": 7019,
      "Ġrobinson": 7020,
      "Ġhonor": 7021,
      "Ġsuccumbs": 7022,
      "Ġunsentiment": 7023,
      "Ġdefies": 7024,
      "Ġnarratively": 7025,
      "Ġdaytime": 7026,
      "Ġundone": 7027,
      "Ġrichard": 7028,
      "Ġimpressively": 7029,
      "Ġsaved": 7030,
      "ekerk": 7031,
      "Ġcallar": 7032,
      "Ġdamon": 7033,
      "Ġdamaged": 7034,
      "Ġinfant": 7035,
      "Ġinfuri": 7036,
      "Ġinfuses": 7037,
      "Ġfolk": 7038,
      "Ġsatisfact": 7039,
      "Ġsatisfies": 7040,
      "Ġheads": 7041,
      "Ġdragons": 7042,
      "writers": 7043,
      "Ġache": 7044,
      "Ġwalt": 7045,
      "Ġwalter": 7046,
      "Ġwalsh": 7047,
      "Ġwallet": 7048,
      "Ġsignpost": 7049,
      "Ġjackass": 7050,
      "Ġpurs": 7051,
      "Ġsuffoc": 7052,
      "Ġprofile": 7053,
      "Ġcontrivances": 7054,
      "Ġmagical": 7055,
      "ungry": 7056,
      "Ġadmittedly": 7057,
      "Ġdifferences": 7058,
      "Ġillumin": 7059,
      "Ġbrian": 7060,
      "Ġdrink": 7061,
      "Ġurg": 7062,
      "Ġmiscal": 7063,
      "Ġmisanth": 7064,
      "Ġmichel": 7065,
      "Ġstrip": 7066,
      "Ġready": 7067,
      "ropol": 7068,
      "Ġexamines": 7069,
      "Ġrocky": 7070,
      "Ġslightest": 7071,
      "Ġoccup": 7072,
      "Ġcuts": 7073,
      "Ġhilarity": 7074,
      "Ġvaluable": 7075,
      "Ġdeserved": 7076,
      "ĠclichèĮħd": 7077,
      "Ġcenter": 7078,
      "Ġbasis": 7079,
      "Ġregret": 7080,
      "Ġdevote": 7081,
      "Ġmethod": 7082,
      "Ġmetropol": 7083,
      "Ġbooks": 7084,
      "Ġpaxton": 7085,
      "Ġdogtown": 7086,
      "Ġderrid": 7087,
      "Ġmysterious": 7088,
      "Ġfourth": 7089,
      "onym": 7090,
      "Ġdougl": 7091,
      "Ġdefinitive": 7092,
      "Ġoppos": 7093,
      "Ġoppress": 7094,
      "Ġdumbed": 7095,
      "Ġunexpl": 7096,
      "pieces": 7097,
      "Ġsplash": 7098,
      "Ġimprovised": 7099,
      "Ġexploit": 7100,
      "Ġroberto": 7101,
      "Ġvein": 7102,
      "Ġsquarely": 7103,
      "Ġpayoff": 7104,
      "Ġpathos": 7105,
      "Ġrenner": 7106,
      "Ġshockingly": 7107,
      "Ġpossibility": 7108,
      "Ġpossibilities": 7109,
      "Ġadded": 7110,
      "Ġaddress": 7111,
      "Ġimportance": 7112,
      "Ġcollateral": 7113,
      "Ġspectacularly": 7114,
      "Ġbalanced": 7115,
      "Ġdriver": 7116,
      "Ġdriven": 7117,
      "Ġdrivel": 7118,
      "Ġclosely": 7119,
      "Ġmomentum": 7120,
      "Ġ88": 7121,
      "Ġgorgeously": 7122,
      "Ġsustains": 7123,
      "Ġtediously": 7124,
      "Ġburr": 7125,
      "Ġburger": 7126,
      "Ġlisten": 7127,
      "Ġinvention": 7128,
      "Ġnights": 7129,
      "Ġuncle": 7130,
      "Ġflashback": 7131,
      "Ġtruthful": 7132,
      "Ġstevens": 7133,
      "obi": 7134,
      "Ġsorrow": 7135,
      "Ġcurves": 7136,
      "Ġcritic": 7137,
      "Ġcritical": 7138,
      "Ġdana": 7139,
      "Ġdanny": 7140,
      "Ġnaturally": 7141,
      "Ġstephen": 7142,
      "Ġchoice": 7143,
      "Ġunbl": 7144,
      "Ġprocession": 7145,
      "Ġfavors": 7146,
      "Ġremembering": 7147,
      "Ġthrowing": 7148,
      "Ġwooden": 7149,
      "Ġcrossroad": 7150,
      "Ġinvaluable": 7151,
      "lett": 7152,
      "Ġmovement": 7153,
      "Ġexisted": 7154,
      "Ġconstruction": 7155,
      "Ġrollicking": 7156,
      "Ġexpressive": 7157,
      "Ġcommunic": 7158,
      "Ġvirtu": 7159,
      "iffle": 7160,
      "Ġtearjerk": 7161,
      "Ġsalv": 7162,
      "Ġsalton": 7163,
      "Ġmadness": 7164,
      "Ġcostner": 7165,
      "Ġcostume": 7166,
      "Ġcostumes": 7167,
      "Ġniche": 7168,
      "Ġrecommended": 7169,
      "Ġlegacy": 7170,
      "Ġpostcard": 7171,
      "Ġcampanella": 7172,
      "Ġliterally": 7173,
      "Ġrambling": 7174,
      "Ġpunching": 7175,
      "Ġhotel": 7176,
      "Ġrevelation": 7177,
      "important": 7178,
      "Ġroutines": 7179,
      "Ġkissing": 7180,
      "Ġopportunities": 7181,
      "Ġtargeted": 7182,
      "Ġcelebrity": 7183,
      "Ġdestined": 7184,
      "Ġjuicy": 7185,
      "Ġjuvenile": 7186,
      "Ġexhaust": 7187,
      "Ġmarvelously": 7188,
      "Ġproduce": 7189,
      "Ġproducer": 7190,
      "Ġmetaphors": 7191,
      "Ġsavage": 7192,
      "Ġfragile": 7193,
      "Ġbanter": 7194,
      "Ġbogs": 7195,
      "Ġpalpable": 7196,
      "Ġtomorrow": 7197,
      "Ġscores": 7198,
      "Ġfrankly": 7199,
      "Ġdisguised": 7200,
      "Ġphotography": 7201,
      "affirming": 7202,
      "zenegger": 7203,
      "Ġmalkovich": 7204,
      "Ġpanor": 7205,
      "Ġpanache": 7206,
      "Ġpantheon": 7207,
      "Ġsucked": 7208,
      "Ġshape": 7209,
      "Ġshaped": 7210,
      "Ġintensely": 7211,
      "Ġincredible": 7212,
      "Ġconsistent": 7213,
      "Ġbreakthr": 7214,
      "Ġnaturalistic": 7215,
      "Ġcartoonish": 7216,
      "Ġcrisis": 7217,
      "Ġpicked": 7218,
      "Ġignore": 7219,
      "Ġignored": 7220,
      "Ġatmospher": 7221,
      "Ġvulner": 7222,
      "Ġstructured": 7223,
      "Ġawkwardly": 7224,
      "Ġawkwardness": 7225,
      "Ġidiotic": 7226,
      "Ġidiosyn": 7227,
      "Ġcircumst": 7228,
      "Ġavoids": 7229,
      "Ġsmooth": 7230,
      "Ġtexture": 7231,
      "Ġstylized": 7232,
      "Ġacceptable": 7233,
      "Ġuh": 7234,
      "Ġcynicism": 7235,
      "Ġpiccol": 7236,
      "Ġlanguorous": 7237,
      "Ġyawn": 7238,
      "Ġunconventional": 7239,
      "Ġjolie": 7240,
      "Ġcondesc": 7241,
      "Ġintrodu": 7242,
      "Ġsubtly": 7243,
      "Ġsurvive": 7244,
      "Ġtraveler": 7245,
      "Ġrecording": 7246,
      "Ġpresentation": 7247,
      "Ġdragonfly": 7248,
      "Ġscratching": 7249,
      "Ġsuggests": 7250,
      "vili": 7251,
      "Ġbirot": 7252,
      "Ġguts": 7253,
      "Ġstops": 7254,
      "Ġsearching": 7255,
      "Ġconnection": 7256,
      "Ġimmediately": 7257,
      "Ġargue": 7258,
      "Ġadolesc": 7259,
      "Ġdiscuss": 7260,
      "Ġradical": 7261,
      "Ġincoherence": 7262,
      "Ġdistinctive": 7263,
      "Ġchallenges": 7264,
      "oleon": 7265,
      "Ġcelluloid": 7266,
      "Ġbowling": 7267,
      "Ġpulp": 7268,
      "Ġpushes": 7269,
      "Ġdanger": 7270,
      "Ġdrowned": 7271,
      "Ġuninterest": 7272,
      "Ġjerry": 7273,
      "Ġrandall": 7274,
      "Ġproperly": 7275,
      "Ġloads": 7276,
      "Ġloaded": 7277,
      "Ġtrashy": 7278,
      "Ġawards": 7279,
      "Ġobjective": 7280,
      "Ġexcesses": 7281,
      "Ġswimfan": 7282,
      "Ġprofoundly": 7283,
      "Ġregardless": 7284,
      "Ġembraces": 7285,
      "Ġbreathtakingly": 7286,
      "Ġnarciss": 7287,
      "Ġemphasis": 7288,
      "Ġemphasizes": 7289,
      "Ġoptim": 7290,
      "Ġfuzzy": 7291,
      "Ġfabul": 7292,
      "Ġfabric": 7293,
      "Ġfacet": 7294,
      "Ġboredom": 7295,
      "orified": 7296,
      "Ġpenetrating": 7297,
      "Ġpraise": 7298,
      "Ġlucky": 7299,
      "Ġstretches": 7300,
      "Ġcomplaint": 7301,
      "Ġmiracle": 7302,
      "Ġsensuality": 7303,
      "Ġmotivated": 7304,
      "Ġmotivations": 7305,
      "Ġdeliciously": 7306,
      "Ġembarrassed": 7307,
      "Ġtaymor": 7308,
      "Ġdares": 7309,
      "Ġdishonest": 7310,
      "Ġlilo": 7311,
      "Ġincompetent": 7312,
      "Ġtosses": 7313,
      "Ġnuanced": 7314,
      "cheek": 7315,
      "Ġaspirations": 7316,
      "Ġuncomfortably": 7317,
      "Ġenormous": 7318,
      "Ġkorean": 7319,
      "Ġfluffy": 7320,
      "Ġoverwhelming": 7321,
      "Ġshowcases": 7322,
      "Ġdepartment": 7323,
      "Ġdistinguished": 7324,
      "Ġsignificant": 7325,
      "Ġsymbol": 7326,
      "Ġsymbolic": 7327,
      "Ġpositively": 7328,
      "Ġpuzzle": 7329,
      "Ġpuzzling": 7330,
      "cratic": 7331,
      "pleaser": 7332,
      "ructive": 7333,
      "Ġversus": 7334,
      "Ġavary": 7335,
      "Ġmultip": 7336,
      "Ġbartleby": 7337,
      "Ġhaynes": 7338,
      "Ġdroll": 7339,
      "Ġdubious": 7340,
      "Ġdubbed": 7341,
      "Ġloosely": 7342,
      "Ġnicole": 7343,
      "Ġstinker": 7344,
      "Ġresembles": 7345,
      "Ġcherish": 7346,
      "Ġspecifically": 7347,
      "Ġdeliberately": 7348,
      "Ġexplores": 7349,
      "Ġexplosions": 7350,
      "Ġdisturbing": 7351,
      "Ġaccurate": 7352,
      "Ġaccurately": 7353,
      "Ġtransparent": 7354,
      "Ġillustrates": 7355,
      "Ġimprovement": 7356,
      "Ġadequate": 7357,
      "Ġadequately": 7358,
      "numbers": 7359,
      "Ġtortured": 7360,
      "Ġthousands": 7361,
      "Ġolivi": 7362,
      "Ġhunter": 7363,
      "Ġdeniro": 7364,
      "Ġlucy": 7365,
      "Ġlunacy": 7366,
      "Ġeerie": 7367,
      "Ġgroan": 7368,
      "Ġseparate": 7369,
      "Ġcharlie": 7370,
      "Ġventure": 7371,
      "Ġperceptive": 7372,
      "Ġqualities": 7373,
      "Ġremotely": 7374,
      "Ġobscure": 7375,
      "Ġguaranteed": 7376,
      "Ġgloriously": 7377,
      "Ġmelancholy": 7378,
      "produced": 7379,
      "Ġbenefit": 7380,
      "Ġrevealed": 7381,
      "Ġlandscape": 7382,
      "Ġunbearably": 7383,
      "Ġinexplicably": 7384,
      "Ġblockbuster": 7385,
      "Ġathletes": 7386,
      "based": 7387,
      "huang": 7388,
      "half": 7389,
      "Ġthirteen": 7390,
      "Ġsiegel": 7391,
      "Ġmisfire": 7392,
      "Ġbleak": 7393,
      "Ġbourne": 7394,
      "Ġaliens": 7395,
      "Ġunrelent": 7396,
      "Ġjewish": 7397,
      "Ġshrill": 7398,
      "Ġsolemn": 7399,
      "Ġfundamentals": 7400,
      "Ġnostalgia": 7401,
      "Ġrodriguez": 7402,
      "Ġdisgusting": 7403,
      "Ġresourceful": 7404,
      "Ġobligatory": 7405,
      "Ġexcruciating": 7406,
      "Ġphysical": 7407,
      "Ġironically": 7408,
      "Ġinstincts": 7409,
      "Ġtransforms": 7410,
      "Ġnormally": 7411,
      "Ġdrumline": 7412,
      "Ġastounding": 7413,
      "Ġferrara": 7414,
      "Ġconspiracy": 7415,
      "Ġphenomenal": 7416,
      "friend": 7417,
      "Ġthornberry": 7418,
      "Ġsqueeze": 7419,
      "Ġought": 7420,
      "Ġfrozen": 7421,
      "Ġwidow": 7422,
      "Ġanomie": 7423,
      "Ġinescapable": 7424,
      "Ġnapoleon": 7425,
      "Ġeuropean": 7426,
      "Ġmoonlight": 7427,
      "Ġchurch": 7428,
      "Ġsupremely": 7429,
      "Ġuncommonly": 7430,
      "Ġscorpion": 7431,
      "Ġprecisely": 7432,
      "Ġflourishes": 7433,
      "Ġcompromise": 7434,
      "Ġblatant": 7435,
      "Ġdisquieting": 7436,
      "Ġmexican": 7437,
      "Ġholofcener": 7438,
      "Ġtelegraph": 7439,
      "Ġnewcomer": 7440,
      "Ġgibson": 7441,
      "Ġinconsistent": 7442,
      "Ġrecovery": 7443,
      "Ġinstallment": 7444,
      "Ġdistasteful": 7445,
      "Ġconfidence": 7446,
      "Ġgriffith": 7447,
      "Ġtarantino": 7448,
      "Ġjealousy": 7449,
      "Ġsubtitles": 7450,
      "Ġneighborhood": 7451,
      "Ġclaustrophob": 7452,
      "feminist": 7453,
      "fisted": 7454,
      "marine": 7455,
      "rotechn": 7456,
      "Ĵteau": 7457,
      "Ġtepid": 7458,
      "Ġarbitr": 7459,
      "Ġsordid": 7460,
      "Ġoedekerk": 7461,
      "Ġocean": 7462,
      "Ġozpetek": 7463,
      "Ġfessenden": 7464,
      "Ġfontaine": 7465,
      "Ġmendes": 7466,
      "Ġcoppola": 7467,
      "Ġborders": 7468,
      "Ġhaneke": 7469,
      "Ġdiane": 7470,
      "Ġtosca": 7471,
      "Ġnelson": 7472,
      "Ġnamed": 7473,
      "Ġgondry": 7474,
      "Ġmothman": 7475,
      "Ġyiddish": 7476,
      "Ġwitherspoon": 7477,
      "ĠchèĬĴteau": 7478,
      "Ġchelsea": 7479,
      "Ġjordan": 7480,
      "Ġjennifer": 7481,
      "Ġnotwithstanding": 7482,
      "Ġkinnear": 7483,
      "Ġwhodunit": 7484,
      "Ġflaccid": 7485,
      "Ġflamboyant": 7486,
      "Ġvignettes": 7487,
      "Ġwaydowntown": 7488,
      "Ġunderbelly": 7489,
      "Ġmattei": 7490,
      "Ġaficionados": 7491,
      "Ġterminally": 7492,
      "Ġschwarzenegger": 7493,
      "Ġmiyazaki": 7494,
      "Ġunsentimental": 7495,
      "Ġmiscalcul": 7496,
      "Ġmisanthrop": 7497,
      "Ġderrida": 7498,
      "Ġdouglas": 7499,
      "Ġcrossroads": 7500,
      "Ġtearjerker": 7501,
      "Ġbreakthrough": 7502,
      "Ġidiosyncratic": 7503,
      "Ġpiccoli": 7504,
      "Ġuninteresting": 7505,
      "13": 7506,
      "aul": 7507,
      "aise": 7508,
      "awn": 7509,
      "avern": 7510,
      "bes": 7511,
      "bar": 7512,
      "bra": 7513,
      "bop": 7514,
      "bour": 7515,
      "brit": 7516,
      "biz": 7517,
      "bull": 7518,
      "bows": 7519,
      "baked": 7520,
      "cre": 7521,
      "car": 7522,
      "cus": 7523,
      "cure": 7524,
      "cast": 7525,
      "city": 7526,
      "cating": 7527,
      "creen": 7528,
      "cond": 7529,
      "cible": 7530,
      "cles": 7531,
      "count": 7532,
      "camp": 7533,
      "cimen": 7534,
      "dr": 7535,
      "don": 7536,
      "dri": 7537,
      "dry": 7538,
      "dash": 7539,
      "dream": 7540,
      "drop": 7541,
      "eer": 7542,
      "ean": 7543,
      "eel": 7544,
      "eem": 7545,
      "eble": 7546,
      "ecies": 7547,
      "fs": 7548,
      "fil": 7549,
      "fell": 7550,
      "fitting": 7551,
      "feld": 7552,
      "front": 7553,
      "ga": 7554,
      "gs": 7555,
      "gap": 7556,
      "gain": 7557,
      "gence": 7558,
      "gram": 7559,
      "gage": 7560,
      "gling": 7561,
      "game": 7562,
      "gian": 7563,
      "han": 7564,
      "hig": 7565,
      "hang": 7566,
      "head": 7567,
      "holds": 7568,
      "iw": 7569,
      "iate": 7570,
      "iard": 7571,
      "iving": 7572,
      "iber": 7573,
      "ifully": 7574,
      "iantly": 7575,
      "ja": 7576,
      "jes": 7577,
      "ket": 7578,
      "kill": 7579,
      "lim": 7580,
      "lay": 7581,
      "lad": 7582,
      "lam": 7583,
      "lies": 7584,
      "log": 7585,
      "lantic": 7586,
      "liness": 7587,
      "lishing": 7588,
      "lastic": 7589,
      "lasting": 7590,
      "looper": 7591,
      "laim": 7592,
      "mus": 7593,
      "mod": 7594,
      "mond": 7595,
      "mpath": 7596,
      "minsky": 7597,
      "ns": 7598,
      "nel": 7599,
      "now": 7600,
      "ningly": 7601,
      "number": 7602,
      "oes": 7603,
      "oct": 7604,
      "oib": 7605,
      "ped": 7606,
      "pous": 7607,
      "part": 7608,
      "pital": 7609,
      "prom": 7610,
      "pole": 7611,
      "packed": 7612,
      "ratic": 7613,
      "rates": 7614,
      "rèĮħ": 7615,
      "ruction": 7616,
      "ruous": 7617,
      "rats": 7618,
      "spl": 7619,
      "suff": 7620,
      "some": 7621,
      "sized": 7622,
      "soph": 7623,
      "siders": 7624,
      "ties": 7625,
      "tical": 7626,
      "takes": 7627,
      "twe": 7628,
      "tany": 7629,
      "tinent": 7630,
      "uy": 7631,
      "uil": 7632,
      "uch": 7633,
      "uge": 7634,
      "uated": 7635,
      "uiling": 7636,
      "uasive": 7637,
      "uendo": 7638,
      "vors": 7639,
      "vability": 7640,
      "vasive": 7641,
      "wing": 7642,
      "west": 7643,
      "water": 7644,
      "wai": 7645,
      "xual": 7646,
      "your": 7647,
      "yac": 7648,
      "yjes": 7649,
      "zing": 7650,
      "¸½": 7651,
      "å¸½": 7652,
      "èģ": 7653,
      "Ġich": 7654,
      "Ġ60": 7655,
      "Ġtu": 7656,
      "Ġtel": 7657,
      "Ġtro": 7658,
      "Ġtum": 7659,
      "Ġtout": 7660,
      "Ġtast": 7661,
      "Ġtable": 7662,
      "Ġtiss": 7663,
      "Ġtrench": 7664,
      "Ġtaps": 7665,
      "Ġtones": 7666,
      "Ġtensions": 7667,
      "Ġtattered": 7668,
      "Ġtapping": 7669,
      "Ġtask": 7670,
      "Ġtavern": 7671,
      "Ġaug": 7672,
      "Ġavant": 7673,
      "Ġauster": 7674,
      "inion": 7675,
      "inable": 7676,
      "inner": 7677,
      "infl": 7678,
      "inarily": 7679,
      "Ġther": 7680,
      "Ġthom": 7681,
      "Ġthirty": 7682,
      "Ġsi": 7683,
      "Ġsard": 7684,
      "Ġsays": 7685,
      "Ġsib": 7686,
      "Ġsky": 7687,
      "Ġsits": 7688,
      "Ġsons": 7689,
      "Ġsund": 7690,
      "Ġsessions": 7691,
      "erably": 7692,
      "ercial": 7693,
      "Ġom": 7694,
      "Ġole": 7695,
      "Ġtheories": 7696,
      "itional": 7697,
      "rect": 7698,
      "enan": 7699,
      "enet": 7700,
      "enity": 7701,
      "Ġfet": 7702,
      "Ġfence": 7703,
      "Ġfren": 7704,
      "Ġfaced": 7705,
      "Ġfires": 7706,
      "Ġfuss": 7707,
      "Ġfien": 7708,
      "Ġfarts": 7709,
      "Ġfoib": 7710,
      "Ġming": 7711,
      "Ġmck": 7712,
      "Ġmap": 7713,
      "Ġmall": 7714,
      "Ġmour": 7715,
      "Ġmord": 7716,
      "Ġmerg": 7717,
      "Ġmired": 7718,
      "Ġmund": 7719,
      "Ġmummy": 7720,
      "Ġmorton": 7721,
      "Ġmtv": 7722,
      "isingly": 7723,
      "isions": 7724,
      "Ġwon": 7725,
      "Ġwan": 7726,
      "Ġwist": 7727,
      "Ġwert": 7728,
      "Ġwiz": 7729,
      "Ġwang": 7730,
      "Ġwishing": 7731,
      "Ġwander": 7732,
      "Ġwrest": 7733,
      "Ġwoll": 7734,
      "athing": 7735,
      "atfalls": 7736,
      "atisfied": 7737,
      "Ġcun": 7738,
      "Ġcere": 7739,
      "Ġcup": 7740,
      "Ġcoun": 7741,
      "Ġcass": 7742,
      "Ġcars": 7743,
      "Ġcia": 7744,
      "Ġcrip": 7745,
      "Ġcroc": 7746,
      "Ġcooper": 7747,
      "Ġcumul": 7748,
      "Ġbot": 7749,
      "Ġbess": 7750,
      "Ġbust": 7751,
      "Ġbare": 7752,
      "Ġbale": 7753,
      "Ġberg": 7754,
      "Ġborn": 7755,
      "Ġbio": 7756,
      "Ġbiel": 7757,
      "Ġbump": 7758,
      "Ġbino": 7759,
      "Ġanach": 7760,
      "Ġancient": 7761,
      "Ġanemic": 7762,
      "Ġanonym": 7763,
      "orter": 7764,
      "orial": 7765,
      "onous": 7766,
      "onious": 7767,
      "onistic": 7768,
      "Ġpg": 7769,
      "Ġpas": 7770,
      "Ġple": 7771,
      "Ġpess": 7772,
      "Ġpelling": 7773,
      "Ġpung": 7774,
      "Ġpunk": 7775,
      "Ġpump": 7776,
      "Ġpunct": 7777,
      "oufl": 7778,
      "ana": 7779,
      "anza": 7780,
      "Ġhed": 7781,
      "Ġhates": 7782,
      "Ġhub": 7783,
      "Ġhann": 7784,
      "Ġhaph": 7785,
      "Ġhidden": 7786,
      "Ġhicken": 7787,
      "Ġded": 7788,
      "Ġdun": 7789,
      "Ġdad": 7790,
      "Ġdur": 7791,
      "Ġdual": 7792,
      "Ġdrew": 7793,
      "Ġdaught": 7794,
      "Ġdaughter": 7795,
      "Ġdarned": 7796,
      "aron": 7797,
      "arad": 7798,
      "arse": 7799,
      "almed": 7800,
      "Ġlis": 7801,
      "Ġlou": 7802,
      "Ġlag": 7803,
      "Ġlav": 7804,
      "Ġlord": 7805,
      "Ġluster": 7806,
      "Ġloop": 7807,
      "Ġlapses": 7808,
      "icz": 7809,
      "icable": 7810,
      "iceless": 7811,
      "ilk": 7812,
      "ilot": 7813,
      "ilated": 7814,
      "Ġinj": 7815,
      "Ġindict": 7816,
      "Ġinvin": 7817,
      "Ġinform": 7818,
      "Ġinformation": 7819,
      "Ġtol": 7820,
      "Ġtoes": 7821,
      "Ġtown": 7822,
      "Ġital": 7823,
      "omy": 7824,
      "omed": 7825,
      "omething": 7826,
      "omercial": 7827,
      "Ġnin": 7828,
      "Ġnur": 7829,
      "Ġnary": 7830,
      "Ġnative": 7831,
      "Ġnach": 7832,
      "Ġnash": 7833,
      "Ġnail": 7834,
      "Ġnett": 7835,
      "Ġnicks": 7836,
      "Ġnails": 7837,
      "Ġnorton": 7838,
      "Ġnemes": 7839,
      "Ġec": 7840,
      "Ġevol": 7841,
      "Ġetern": 7842,
      "asi": 7843,
      "asing": 7844,
      "asper": 7845,
      "lem": 7846,
      "lein": 7847,
      "leck": 7848,
      "leep": 7849,
      "leged": 7850,
      "Ġgy": 7851,
      "Ġgel": 7852,
      "Ġgul": 7853,
      "Ġgad": 7854,
      "Ġgam": 7855,
      "Ġgere": 7856,
      "Ġgary": 7857,
      "Ġgren": 7858,
      "Ġgris": 7859,
      "Ġgian": 7860,
      "Ġgrew": 7861,
      "Ġgave": 7862,
      "Ġgasp": 7863,
      "Ġglee": 7864,
      "eline": 7865,
      "elbe": 7866,
      "uto": 7867,
      "ento": 7868,
      "step": 7869,
      "stac": 7870,
      "otte": 7871,
      "otted": 7872,
      "otesque": 7873,
      "Ġstat": 7874,
      "Ġstan": 7875,
      "Ġstall": 7876,
      "Ġstark": 7877,
      "Ġstew": 7878,
      "Ġstates": 7879,
      "Ġstages": 7880,
      "under": 7881,
      "unky": 7882,
      "Ġrely": 7883,
      "Ġreck": 7884,
      "Ġreci": 7885,
      "Ġreef": 7886,
      "Ġrelying": 7887,
      "Ġreceived": 7888,
      "Ġresearch": 7889,
      "etime": 7890,
      "etoric": 7891,
      "vial": 7892,
      "imed": 7893,
      "imum": 7894,
      "imated": 7895,
      "imony": 7896,
      "rah": 7897,
      "raw": 7898,
      "rader": 7899,
      "rable": 7900,
      "rained": 7901,
      "ched": 7902,
      "chang": 7903,
      "child": 7904,
      "change": 7905,
      "ulse": 7906,
      "ulation": 7907,
      "ulence": 7908,
      "uline": 7909,
      "Ġbeer": 7910,
      "Ġbeings": 7911,
      "Ġbearing": 7912,
      "Ġbeats": 7913,
      "rog": 7914,
      "Ġwhiny": 7915,
      "cely": 7916,
      "Ġyard": 7917,
      "Ġyellow": 7918,
      "Ġfilming": 7919,
      "rie": 7920,
      "olf": 7921,
      "Ġford": 7922,
      "Ġforth": 7923,
      "Ġfortun": 7924,
      "aded": 7925,
      "addle": 7926,
      "advert": 7927,
      "Ġchou": 7928,
      "Ġcham": 7929,
      "Ġchest": 7930,
      "Ġchos": 7931,
      "Ġchoura": 7932,
      "Ġsuits": 7933,
      "Ġsuitable": 7934,
      "Ġian": 7935,
      "Ġiwai": 7936,
      "Ġcoma": 7937,
      "seat": 7938,
      "Ġalice": 7939,
      "Ġalbe": 7940,
      "Ġaloof": 7941,
      "Ġalleged": 7942,
      "Ġliar": 7943,
      "Ġligh": 7944,
      "oops": 7945,
      "irk": 7946,
      "irst": 7947,
      "irling": 7948,
      "irds": 7949,
      "Ġunle": 7950,
      "Ġunable": 7951,
      "Ġunment": 7952,
      "Ġunass": 7953,
      "Ġunsy": 7954,
      "Ġunited": 7955,
      "Ġunreal": 7956,
      "Ġunknown": 7957,
      "amic": 7958,
      "amura": 7959,
      "abl": 7960,
      "abre": 7961,
      "ables": 7962,
      "Ġjr": 7963,
      "Ġjar": 7964,
      "Ġjay": 7965,
      "Ġjell": 7966,
      "Ġjos": 7967,
      "Ġjose": 7968,
      "Ġjaz": 7969,
      "Ġjank": 7970,
      "Ġjumps": 7971,
      "ths": 7972,
      "thod": 7973,
      "idi": 7974,
      "idedly": 7975,
      "Ġseam": 7976,
      "Ġsept": 7977,
      "Ġsearing": 7978,
      "Ġseams": 7979,
      "Ġsegment": 7980,
      "Ġselection": 7981,
      "Ġshri": 7982,
      "Ġshell": 7983,
      "Ġshop": 7984,
      "Ġshod": 7985,
      "Ġshower": 7986,
      "Ġshaf": 7987,
      "Ġshenan": 7988,
      "Ġshorter": 7989,
      "emon": 7990,
      "emorable": 7991,
      "aging": 7992,
      "aganda": 7993,
      "uments": 7994,
      "umacher": 7995,
      "estinian": 7996,
      "esteem": 7997,
      "Ġenvelop": 7998,
      "Ġenchant": 7999,
      "Ġexal": 8000,
      "Ġexists": 8001,
      "Ġexasper": 8002,
      "ousing": 8003,
      "Ġnotes": 8004,
      "Ġris": 8005,
      "Ġrice": 8006,
      "Ġrans": 8007,
      "Ġrhaps": 8008,
      "Ġringu": 8009,
      "Ġably": 8010,
      "Ġabund": 8011,
      "Ġdear": 8012,
      "queness": 8013,
      "Ġconvol": 8014,
      "Ġdover": 8015,
      "Ġdozen": 8016,
      "Ġscand": 8017,
      "Ġscrap": 8018,
      "Ġscroo": 8019,
      "Ġscathing": 8020,
      "Ġatlantic": 8021,
      "apes": 8022,
      "Ġworry": 8023,
      "ellingly": 8024,
      "Ġkin": 8025,
      "Ġkim": 8026,
      "Ġkub": 8027,
      "Ġkitch": 8028,
      "Ġkilling": 8029,
      "Ġkaf": 8030,
      "Ġklein": 8031,
      "Ġsocc": 8032,
      "Ġsoars": 8033,
      "astically": 8034,
      "usted": 8035,
      "Ġhawn": 8036,
      "Ġlikeable": 8037,
      "acter": 8038,
      "Ġallusions": 8039,
      "Ġprose": 8040,
      "Ġproced": 8041,
      "Ġproof": 8042,
      "Ġprogram": 8043,
      "Ġcharged": 8044,
      "Ġhashig": 8045,
      "igans": 8046,
      "igree": 8047,
      "Ġheated": 8048,
      "Ġheavi": 8049,
      "Ġpluck": 8050,
      "Ġactiv": 8051,
      "Ġfeces": 8052,
      "Ġfeardot": 8053,
      "Ġfeeble": 8054,
      "opher": 8055,
      "depre": 8056,
      "depend": 8057,
      "vened": 8058,
      "ortedly": 8059,
      "Ġvon": 8060,
      "Ġvan": 8061,
      "Ġvic": 8062,
      "Ġvoy": 8063,
      "Ġspi": 8064,
      "Ġspice": 8065,
      "Ġspins": 8066,
      "Ġspends": 8067,
      "Ġspots": 8068,
      "Ġspiff": 8069,
      "Ġspright": 8070,
      "Ġspaces": 8071,
      "Ġspiced": 8072,
      "iched": 8073,
      "Ġimb": 8074,
      "Ġimamura": 8075,
      "Ġpred": 8076,
      "Ġpregn": 8077,
      "Ġprejud": 8078,
      "inducing": 8079,
      "udable": 8080,
      "Ġperme": 8081,
      "Ġperdition": 8082,
      "Ġperpet": 8083,
      "Ġpertinent": 8084,
      "Ġpervasive": 8085,
      "Ġorder": 8086,
      "Ġlewis": 8087,
      "acky": 8088,
      "Ġloath": 8089,
      "Ġlobby": 8090,
      "Ġcla": 8091,
      "Ġclar": 8092,
      "Ġclad": 8093,
      "Ġclown": 8094,
      "Ġclaim": 8095,
      "Ġclaude": 8096,
      "Ġclunky": 8097,
      "Ġouter": 8098,
      "Ġoutcome": 8099,
      "Ġoutsiders": 8100,
      "Ġouttakes": 8101,
      "Ġfunction": 8102,
      "Ġfunctions": 8103,
      "ongruous": 8104,
      "plies": 8105,
      "Ġmann": 8106,
      "Ġmanners": 8107,
      "pering": 8108,
      "peror": 8109,
      "Ġflag": 8110,
      "Ġflame": 8111,
      "Ġflail": 8112,
      "Ġnose": 8113,
      "Ġtrim": 8114,
      "icky": 8115,
      "mann": 8116,
      "manship": 8117,
      "Ġwear": 8118,
      "Ġposter": 8119,
      "Ġquarter": 8120,
      "Ġquaid": 8121,
      "Ġquasi": 8122,
      "Ġarm": 8123,
      "Ġarth": 8124,
      "Ġarist": 8125,
      "Ġwhatso": 8126,
      "Ġadri": 8127,
      "Ġadage": 8128,
      "Ġadding": 8129,
      "ogen": 8130,
      "ograp": 8131,
      "Ġanywhere": 8132,
      "Ġvia": 8133,
      "Ġvibe": 8134,
      "ertime": 8135,
      "Ġworkplace": 8136,
      "Ġthrust": 8137,
      "Ġcompos": 8138,
      "Ġcomposed": 8139,
      "Ġcompuls": 8140,
      "Ġcomposition": 8141,
      "Ġcompellingly": 8142,
      "Ġros": 8143,
      "ourse": 8144,
      "Ġwillis": 8145,
      "Ġenters": 8146,
      "Ġenticing": 8147,
      "odic": 8148,
      "odile": 8149,
      "epp": 8150,
      "eped": 8151,
      "episi": 8152,
      "Ġblax": 8153,
      "Ġbluster": 8154,
      "comings": 8155,
      "Ġcanon": 8156,
      "Ġcanad": 8157,
      "Ġcanny": 8158,
      "osedly": 8159,
      "Ġmucc": 8160,
      "Ġhumans": 8161,
      "acle": 8162,
      "Ġoverb": 8163,
      "Ġovertly": 8164,
      "Ġoverrun": 8165,
      "Ġovercomes": 8166,
      "Ġemperor": 8167,
      "ppingly": 8168,
      "Ġdiss": 8169,
      "Ġdisar": 8170,
      "Ġdisint": 8171,
      "Ġdisplays": 8172,
      "Ġdiscipl": 8173,
      "week": 8174,
      "Ġslam": 8175,
      "Ġslog": 8176,
      "Ġslopp": 8177,
      "Ġbettany": 8178,
      "ritical": 8179,
      "ipaul": 8180,
      "Ġeverybody": 8181,
      "Ġeverywhere": 8182,
      "Ġrac": 8183,
      "Ġraim": 8184,
      "Ġrapt": 8185,
      "Ġravis": 8186,
      "Ġrazz": 8187,
      "Ġraises": 8188,
      "Ġfault": 8189,
      "Ġmeal": 8190,
      "Ġmeant": 8191,
      "Ġmegap": 8192,
      "Ġmeyjes": 8193,
      "Ġripe": 8194,
      "Ġrife": 8195,
      "Ġrigid": 8196,
      "Ġsuburban": 8197,
      "Ġsubmarine": 8198,
      "Ġsmash": 8199,
      "Ġdramas": 8200,
      "Ġimpart": 8201,
      "Ġimpenet": 8202,
      "Ġgenres": 8203,
      "Ġgenius": 8204,
      "inting": 8205,
      "Ġrealizing": 8206,
      "Ġintermin": 8207,
      "Ġinteraction": 8208,
      "Ġinsign": 8209,
      "Ġinsistent": 8210,
      "Ġinsurance": 8211,
      "thern": 8212,
      "Ġmakeup": 8213,
      "Ġherm": 8214,
      "Ġheritage": 8215,
      "Ġbrim": 8216,
      "Ġbrus": 8217,
      "Ġbrash": 8218,
      "Ġbrush": 8219,
      "Ġbruce": 8220,
      "Ġbrisk": 8221,
      "Ġended": 8222,
      "Ġenduring": 8223,
      "ventful": 8224,
      "rend": 8225,
      "Ġseeming": 8226,
      "shot": 8227,
      "osexual": 8228,
      "Ġstrate": 8229,
      "Ġstrands": 8230,
      "fteen": 8231,
      "Ġtea": 8232,
      "Ġcontest": 8233,
      "Ġcontempt": 8234,
      "ocation": 8235,
      "oclastic": 8236,
      "ashvili": 8237,
      "Ġundert": 8238,
      "Ġunderlying": 8239,
      "Ġundercur": 8240,
      "Ġnewf": 8241,
      "Ġaged": 8242,
      "Ġagend": 8243,
      "Ġentertained": 8244,
      "Ġentertainingly": 8245,
      "Ġromane": 8246,
      "Ġtrap": 8247,
      "Ġtragically": 8248,
      "Ġplotless": 8249,
      "Ġpeak": 8250,
      "Ġpeplo": 8251,
      "ework": 8252,
      "Ġaudacity": 8253,
      "Ġaudiard": 8254,
      "Ġartful": 8255,
      "Ġartsy": 8256,
      "Ġresur": 8257,
      "Ġresident": 8258,
      "Ġreserved": 8259,
      "Ġvisible": 8260,
      "onditional": 8261,
      "Ġ16": 8262,
      "Ġ18": 8263,
      "Ġprint": 8264,
      "Ġpratfalls": 8265,
      "Ġgrim": 8266,
      "Ġgrate": 8267,
      "Ġgrotesque": 8268,
      "isms": 8269,
      "Ġwarfare": 8270,
      "Ġfreud": 8271,
      "Ġfreaky": 8272,
      "igned": 8273,
      "soon": 8274,
      "Ġcrane": 8275,
      "Ġcrummy": 8276,
      "Ġcrushing": 8277,
      "Ġgreater": 8278,
      "Ġgreatness": 8279,
      "Ġgift": 8280,
      "Ġgifts": 8281,
      "Ġaware": 8282,
      "ivable": 8283,
      "ighter": 8284,
      "uctant": 8285,
      "Ġfiring": 8286,
      "cia": 8287,
      "mering": 8288,
      "Ġdownward": 8289,
      "Ġdowntown": 8290,
      "Ġcharacteristic": 8291,
      "away": 8292,
      "umentary": 8293,
      "Ġcrew": 8294,
      "Ġkept": 8295,
      "Ġthrilling": 8296,
      "Ġscripting": 8297,
      "Ġterry": 8298,
      "Ġeverlasting": 8299,
      "Ġincident": 8300,
      "Ġincongruous": 8301,
      "Ġscenic": 8302,
      "umbers": 8303,
      "umbling": 8304,
      "Ġspecimen": 8305,
      "Ġdiary": 8306,
      "Ġdiaz": 8307,
      "Ġdiaries": 8308,
      "Ġenjoys": 8309,
      "Ġcoal": 8310,
      "Ġcovers": 8311,
      "Ġlesser": 8312,
      "Ġexcited": 8313,
      "Ġrecall": 8314,
      "Ġhumanly": 8315,
      "Ġafterno": 8316,
      "Ġsatin": 8317,
      "Ġfarrel": 8318,
      "Ġpretend": 8319,
      "Ġbackdrop": 8320,
      "Ġhigher": 8321,
      "Ġsettle": 8322,
      "Ġcapra": 8323,
      "Ġcapital": 8324,
      "Ġcapability": 8325,
      "Ġrelate": 8326,
      "Ġrelax": 8327,
      "Ġreluctant": 8328,
      "atherine": 8329,
      "azard": 8330,
      "Ġpleasantly": 8331,
      "Ġstyles": 8332,
      "Ġcarn": 8333,
      "Ġcarpent": 8334,
      "Ġcaricature": 8335,
      "Ġglimps": 8336,
      "Ġglorified": 8337,
      "Ġapply": 8338,
      "Ġschlock": 8339,
      "Ġschrader": 8340,
      "Ġschumacher": 8341,
      "Ġschepisi": 8342,
      "Ġphone": 8343,
      "Ġphrase": 8344,
      "Ġunfl": 8345,
      "Ġskate": 8346,
      "Ġskins": 8347,
      "Ġsurprised": 8348,
      "Ġpowerfully": 8349,
      "Ġelusive": 8350,
      "Ġdepend": 8351,
      "Ġneedlessly": 8352,
      "Ġchekh": 8353,
      "Ġcheeky": 8354,
      "Ġpointed": 8355,
      "Ġsweat": 8356,
      "Ġswept": 8357,
      "Ġexpert": 8358,
      "Ġexpertly": 8359,
      "Ġexperienced": 8360,
      "uffy": 8361,
      "Ġcraig": 8362,
      "Ġcrafts": 8363,
      "Ġextent": 8364,
      "Ġmarquis": 8365,
      "Ġirwin": 8366,
      "Ġhorrors": 8367,
      "Ġgraham": 8368,
      "Ġgravity": 8369,
      "Ġrunner": 8370,
      "ording": 8371,
      "Ġ24": 8372,
      "Ġinstance": 8373,
      "gery": 8374,
      "Ġedits": 8375,
      "Ġedward": 8376,
      "Ġedges": 8377,
      "Ġleavened": 8378,
      "Ġacid": 8379,
      "Ġacqu": 8380,
      "Ġaccomp": 8381,
      "Ġmessy": 8382,
      "asculine": 8383,
      "Ġformal": 8384,
      "ailed": 8385,
      "Ġrefuge": 8386,
      "Ġintelligently": 8387,
      "Ġmorph": 8388,
      "Ġmoronic": 8389,
      "Ġmorbid": 8390,
      "Ġrepellent": 8391,
      "Ġreplete": 8392,
      "Ġsweetest": 8393,
      "èĮĤ": 8394,
      "Ġmember": 8395,
      "Ġmemento": 8396,
      "Ġelection": 8397,
      "Ġelevate": 8398,
      "Ġsteals": 8399,
      "Ġsteeped": 8400,
      "Ġaffable": 8401,
      "Ġafford": 8402,
      "Ġaffirming": 8403,
      "Ġaffleck": 8404,
      "Ġportug": 8405,
      "Ġappeals": 8406,
      "Ġdistant": 8407,
      "Ġdistress": 8408,
      "Ġstudent": 8409,
      "Ġdecided": 8410,
      "Ġdecidedly": 8411,
      "playing": 8412,
      "Ġfascination": 8413,
      "yssey": 8414,
      "Ġzomb": 8415,
      "Ġpasses": 8416,
      "Ġpassing": 8417,
      "Ġpassages": 8418,
      "Ġhandling": 8419,
      "Ġdemme": 8420,
      "Ġdemograph": 8421,
      "Ġdemocra": 8422,
      "Ġdeepest": 8423,
      "Ġcamoufl": 8424,
      "Ġdetract": 8425,
      "Ġdetached": 8426,
      "Ġdetective": 8427,
      "iculously": 8428,
      "Ġchildlike": 8429,
      "Ġfascinate": 8430,
      "volving": 8431,
      "Ġconfessions": 8432,
      "Ġbeliever": 8433,
      "Ġbelieving": 8434,
      "Ġbelievability": 8435,
      "cont": 8436,
      "concept": 8437,
      "constr": 8438,
      "Ġstarting": 8439,
      "Ġmusicians": 8440,
      "Ġaccording": 8441,
      "Ġuneventful": 8442,
      "Ġsensibility": 8443,
      "Ġsensitivity": 8444,
      "Ġmonument": 8445,
      "Ġmonsoon": 8446,
      "Ġbuzz": 8447,
      "Ġbuå¸½": 8448,
      "Ġretal": 8449,
      "Ġretains": 8450,
      "Ġretool": 8451,
      "Ġwrote": 8452,
      "Ġclassical": 8453,
      "meaning": 8454,
      "Ġsouthern": 8455,
      "Ġbaran": 8456,
      "Ġpsyche": 8457,
      "Ġpsycho": 8458,
      "Ġpsychedel": 8459,
      "Ġpsychopath": 8460,
      "Ġlightly": 8461,
      "Ġfailing": 8462,
      "Ġfailed": 8463,
      "Ġmeditative": 8464,
      "Ġboister": 8465,
      "Ġboasting": 8466,
      "Ġboils": 8467,
      "Ġnarrator": 8468,
      "Ġpredictability": 8469,
      "Ġshortcomings": 8470,
      "Ġsilence": 8471,
      "Ġmidway": 8472,
      "Ġlowbrow": 8473,
      "Ġexpos": 8474,
      "Ġexpands": 8475,
      "Ġstrains": 8476,
      "Ġstrained": 8477,
      "Ġexpects": 8478,
      "Ġtransgress": 8479,
      "Ġ1960": 8480,
      "Ġengagingly": 8481,
      "Ġbravery": 8482,
      "Ġbrains": 8483,
      "Ġepip": 8484,
      "Ġrobust": 8485,
      "Ġunsatisf": 8486,
      "Ġunsurp": 8487,
      "Ġprobing": 8488,
      "Ġstronger": 8489,
      "Ġstrongly": 8490,
      "Ġstrongest": 8491,
      "Ġ95": 8492,
      "Ġunders": 8493,
      "Ġundisput": 8494,
      "Ġdebate": 8495,
      "Ġleading": 8496,
      "Ġimpressions": 8497,
      "covery": 8498,
      "Ġsaves": 8499,
      "Ġsnoo": 8500,
      "Ġsnap": 8501,
      "Ġsentence": 8502,
      "Ġwoven": 8503,
      "Ġsuspend": 8504,
      "Ġpromisingly": 8505,
      "Ġwarmed": 8506,
      "Ġdamning": 8507,
      "Ġinfomercial": 8508,
      "Ġsounding": 8509,
      "Ġfolly": 8510,
      "Ġleth": 8511,
      "Ġletter": 8512,
      "Ġletdown": 8513,
      "Ġopens": 8514,
      "Ġopinion": 8515,
      "Ġfallen": 8516,
      "Ġfalling": 8517,
      "Ġnorth": 8518,
      "Ġbeguiling": 8519,
      "Ġheady": 8520,
      "Ġheaded": 8521,
      "Ġinsightfully": 8522,
      "retation": 8523,
      "retentious": 8524,
      "Ġwalking": 8525,
      "Ġuniform": 8526,
      "Ġuniverse": 8527,
      "Ġinspires": 8528,
      "bral": 8529,
      "heart": 8530,
      "uries": 8531,
      "Ġsignals": 8532,
      "Ġdawn": 8533,
      "Ġreduces": 8534,
      "Ġreduced": 8535,
      "Ġsuffer": 8536,
      "Ġprofane": 8537,
      "nedy": 8538,
      "Ġangle": 8539,
      "Ġangry": 8540,
      "Ġquieter": 8541,
      "Ġadmission": 8542,
      "Ġcomplexities": 8543,
      "Ġsuccessfully": 8544,
      "Ġillness": 8545,
      "Ġmisses": 8546,
      "Ġbrio": 8547,
      "Ġdrunk": 8548,
      "Ġheroic": 8549,
      "Ġobser": 8550,
      "visation": 8551,
      "Ġsinger": 8552,
      "Ġmisgu": 8553,
      "Ġmiserable": 8554,
      "Ġmisogy": 8555,
      "Ġrocks": 8556,
      "Ġrocket": 8557,
      "century": 8558,
      "Ġoccur": 8559,
      "Ġmenace": 8560,
      "Ġwaves": 8561,
      "Ġcuteness": 8562,
      "Ġsupport": 8563,
      "Ġsupposedly": 8564,
      "Ġvaliantly": 8565,
      "Ġdeserving": 8566,
      "Ġexception": 8567,
      "Ġprojects": 8568,
      "Ġaffected": 8569,
      "Ġmeticulously": 8570,
      "Ġbreaking": 8571,
      "Ġmotions": 8572,
      "Ġbrilliance": 8573,
      "Ġelsewhere": 8574,
      "lowicz": 8575,
      "Ġderived": 8576,
      "Ġtopics": 8577,
      "Ġcombat": 8578,
      "Ġcombust": 8579,
      "Ġmysteries": 8580,
      "goers": 8581,
      "moving": 8582,
      "Ġtrees": 8583,
      "Ġhopes": 8584,
      "Ġhopelessly": 8585,
      "uttering": 8586,
      "Ġdefinition": 8587,
      "Ġhilariously": 8588,
      "Ġinvolve": 8589,
      "Ġnonstop": 8590,
      "Ġhelped": 8591,
      "Ġdisappointingly": 8592,
      "aiian": 8593,
      "attage": 8594,
      "attling": 8595,
      "Ġlittered": 8596,
      "Ġchronic": 8597,
      "Ġblandness": 8598,
      "Ġimprovisation": 8599,
      "Ġescapes": 8600,
      "Ġescaped": 8601,
      "Ġescapist": 8602,
      "Ġexploiting": 8603,
      "Ġsecondhand": 8604,
      "Ġroberts": 8605,
      "Ġairless": 8606,
      "Ġsquad": 8607,
      "Ġwelsh": 8608,
      "Ġpayami": 8609,
      "Ġlimits": 8610,
      "urdened": 8611,
      "Ġhistorically": 8612,
      "Ġwaterlog": 8613,
      "Ġcorp": 8614,
      "Ġcorrupt": 8615,
      "Ġsucceeded": 8616,
      "Ġcollision": 8617,
      "Ġhopefully": 8618,
      "years": 8619,
      "zzzz": 8620,
      "Ġastute": 8621,
      "Ġsleek": 8622,
      "Ġsleeper": 8623,
      "Ġjoyless": 8624,
      "Ġendeav": 8625,
      "Ġdevelops": 8626,
      "Ġdevelopments": 8627,
      "Ġprovided": 8628,
      "Ġslapdash": 8629,
      "Ġhorribly": 8630,
      "Ġ80": 8631,
      "Ġ84": 8632,
      "Ġ86": 8633,
      "Ġthinly": 8634,
      "Ġhitler": 8635,
      "Ġunpretentious": 8636,
      "Ġchristopher": 8637,
      "ucin": 8638,
      "Ġnifty": 8639,
      "Ġiii": 8640,
      "Ġunconditional": 8641,
      "Ġfrustratingly": 8642,
      "Ġflashes": 8643,
      "Ġtechnique": 8644,
      "Ġartistry": 8645,
      "Ġskills": 8646,
      "Ġskillful": 8647,
      "Ġskillfully": 8648,
      "Ġdepressed": 8649,
      "Ġdepression": 8650,
      "Ġmedium": 8651,
      "spective": 8652,
      "Ġtestimony": 8653,
      "Ġmerits": 8654,
      "Ġcurt": 8655,
      "Ġcritique": 8656,
      "Ġcriticism": 8657,
      "Ġdaniel": 8658,
      "Ġlabor": 8659,
      "Ġlandmark": 8660,
      "Ġgeared": 8661,
      "Ġtwisting": 8662,
      "Ġinclination": 8663,
      "ovan": 8664,
      "Ġthrowback": 8665,
      "Ġcrossover": 8666,
      "Ġpurely": 8667,
      "Ġdigs": 8668,
      "Ġdiggs": 8669,
      "Ġinviting": 8670,
      "Ġforcefully": 8671,
      "Ġdepths": 8672,
      "Ġcommunal": 8673,
      "Ġvirtues": 8674,
      "Ġauthor": 8675,
      "Ġsalt": 8676,
      "Ġsalma": 8677,
      "Ġsources": 8678,
      "Ġmadd": 8679,
      "Ġwednes": 8680,
      "Ġcartoons": 8681,
      "Ġissue": 8682,
      "Ġgoofball": 8683,
      "Ġmodel": 8684,
      "Ġconventions": 8685,
      "Ġimmers": 8686,
      "Ġimmac": 8687,
      "Ġimmature": 8688,
      "Ġlegal": 8689,
      "Ġelegance": 8690,
      "Ġcampy": 8691,
      "Ġliterate": 8692,
      "Ġbreathes": 8693,
      "Ġcalm": 8694,
      "Ġcalib": 8695,
      "onstruction": 8696,
      "Ġpackage": 8697,
      "Ġhomosexual": 8698,
      "Ġdenis": 8699,
      "Ġdenying": 8700,
      "Ġlaudable": 8701,
      "Ġreaches": 8702,
      "Ġreaching": 8703,
      "Ġreached": 8704,
      "Ġrevelations": 8705,
      "Ġmanipulation": 8706,
      "Ġfollowed": 8707,
      "Ġlyn": 8708,
      "Ġlyne": 8709,
      "Ġaimlessly": 8710,
      "Ġcatching": 8711,
      "Ġbias": 8712,
      "Ġbiography": 8713,
      "Ġburning": 8714,
      "Ġdestruction": 8715,
      "Ġtowards": 8716,
      "Ġrewarded": 8717,
      "Ġjuan": 8718,
      "Ġexhib": 8719,
      "Ġscruffy": 8720,
      "Ġreminding": 8721,
      "Ġreminded": 8722,
      "Ġstruggling": 8723,
      "Ġstruggles": 8724,
      "Ġcontinuity": 8725,
      "Ġcollectively": 8726,
      "Ġresonate": 8727,
      "Ġprimary": 8728,
      "Ġprimitive": 8729,
      "ronistic": 8730,
      "working": 8731,
      "worthy": 8732,
      "Ġtimid": 8733,
      "Ġwalls": 8734,
      "Ġwallop": 8735,
      "Ġbogus": 8736,
      "Ġbogged": 8737,
      "Ġfranklin": 8738,
      "Ġprotect": 8739,
      "Ġcredited": 8740,
      "Ġphoto": 8741,
      "Ġabsurdist": 8742,
      "Ġuniquely": 8743,
      "loving": 8744,
      "Ġingred": 8745,
      "Ġfiend": 8746,
      "Ġmalaise": 8747,
      "Ġwastes": 8748,
      "Ġgarcia": 8749,
      "Ġsucks": 8750,
      "Ġlifetime": 8751,
      "Ġpropaganda": 8752,
      "Ġfearless": 8753,
      "Ġrespectable": 8754,
      "Ġminority": 8755,
      "Ġdemonstrate": 8756,
      "Ġdemonstrating": 8757,
      "Ġsuperficiality": 8758,
      "Ġ40": 8759,
      "Ġautom": 8760,
      "Ġautop": 8761,
      "Ġmachismo": 8762,
      "Ġhammy": 8763,
      "Ġhampered": 8764,
      "Ġdreck": 8765,
      "Ġinnuendo": 8766,
      "Ġnumbing": 8767,
      "charged": 8768,
      "character": 8769,
      "Ġjeff": 8770,
      "Ġintentionally": 8771,
      "Ġvoices": 8772,
      "Ġweakness": 8773,
      "Ġemptiness": 8774,
      "inspiring": 8775,
      "Ġirrelevant": 8776,
      "Ġexploring": 8777,
      "Ġproductions": 8778,
      "Ġmaintain": 8779,
      "Ġmaintaining": 8780,
      "Ġidiots": 8781,
      "Ġextraordinarily": 8782,
      "Ġcircus": 8783,
      "Ġturgid": 8784,
      "Ġsonny": 8785,
      "Ġbodice": 8786,
      "Ġbodily": 8787,
      "Ġhallucin": 8788,
      "Ġdimension": 8789,
      "Ġhaunted": 8790,
      "Ġsmoother": 8791,
      "Ġsmoking": 8792,
      "Ġbroadway": 8793,
      "Ġaccepting": 8794,
      "Ġrepetition": 8795,
      "Ġcaptivates": 8796,
      "Ġineptly": 8797,
      "Ġcommercialism": 8798,
      "Ġaccomplish": 8799,
      "blood": 8800,
      "know": 8801,
      "uitous": 8802,
      "Ġforeign": 8803,
      "Ġforemost": 8804,
      "Ġmaker": 8805,
      "Ġcandid": 8806,
      "Ġcourt": 8807,
      "Ġpride": 8808,
      "Ġnaive": 8809,
      "Ġnaipaul": 8810,
      "Ġmoviegoing": 8811,
      "Ġjolt": 8812,
      "Ġjolts": 8813,
      "Ġshadyac": 8814,
      "Ġcondensed": 8815,
      "Ġintroduction": 8816,
      "Ġallowing": 8817,
      "Ġallowed": 8818,
      "Ġvillains": 8819,
      "Ġrealistically": 8820,
      "Ġsurvival": 8821,
      "Ġsurvivors": 8822,
      "Ġbrightly": 8823,
      "Ġmetaphorical": 8824,
      "cultural": 8825,
      "Ġtunis": 8826,
      "Ġtuned": 8827,
      "Ġtunney": 8828,
      "ennial": 8829,
      "Ġfocused": 8830,
      "Ġbollywood": 8831,
      "Ġbolster": 8832,
      "Ġboldly": 8833,
      "Ġpuerile": 8834,
      "Ġpileup": 8835,
      "Ġpractice": 8836,
      "Ġhypoc": 8837,
      "Ġstreets": 8838,
      "Ġrequire": 8839,
      "Ġjulie": 8840,
      "Ġdeception": 8841,
      "Ġdeceptions": 8842,
      "Ġscarcely": 8843,
      "Ġneglig": 8844,
      "Ġimmediacy": 8845,
      "Ġlocales": 8846,
      "Ġarguments": 8847,
      "Ġcompetition": 8848,
      "Ġslipper": 8849,
      "Ġradar": 8850,
      "Ġradiant": 8851,
      "Ġsurrounded": 8852,
      "Ġinsultingly": 8853,
      "Ġheartbreak": 8854,
      "Ġappreciated": 8855,
      "Ġdistinctly": 8856,
      "consciously": 8857,
      "Ġobsessive": 8858,
      "Ġobsessions": 8859,
      "Ġprotagonists": 8860,
      "Ġridiculousness": 8861,
      "Ġbaggage": 8862,
      "Ġpedigree": 8863,
      "Ġpulse": 8864,
      "Ġpulpy": 8865,
      "Ġpairing": 8866,
      "Ġpushed": 8867,
      "Ġdrowns": 8868,
      "Ġnerves": 8869,
      "Ġgosford": 8870,
      "Ġuninvolving": 8871,
      "Ġlosers": 8872,
      "Ġclosing": 8873,
      "Ġwillingness": 8874,
      "Ġobjectivity": 8875,
      "Ġrecycling": 8876,
      "Ġeloquently": 8877,
      "Ġcrackle": 8878,
      "Ġswimming": 8879,
      "Ġadmirably": 8880,
      "Ġregarding": 8881,
      "Ġembrace": 8882,
      "Ġstereotypical": 8883,
      "Ġtackling": 8884,
      "Ġtackles": 8885,
      "Ġmillion": 8886,
      "Ġmacdowell": 8887,
      "Ġmacabre": 8888,
      "Ġwesley": 8889,
      "Ġwondrous": 8890,
      "Ġpray": 8891,
      "Ġprism": 8892,
      "Ġhideously": 8893,
      "Ġdoll": 8894,
      "Ġlayered": 8895,
      "Ġstretched": 8896,
      "ripper": 8897,
      "Ġunforgettable": 8898,
      "Ġenigmatic": 8899,
      "Ġrushed": 8900,
      "Ġconditioning": 8901,
      "Ġhawk": 8902,
      "Ġhawke": 8903,
      "Ġhawaiian": 8904,
      "Ġresistance": 8905,
      "Ġprincess": 8906,
      "Ġprincip": 8907,
      "Ġcharacterization": 8908,
      "Ġterrorism": 8909,
      "Ġrelentless": 8910,
      "Ġmargin": 8911,
      "Ġinnocent": 8912,
      "Ġresponsibility": 8913,
      "Ġprofessionals": 8914,
      "Ġdickensian": 8915,
      "aaaa": 8916,
      "Ġsneaks": 8917,
      "Ġbaffled": 8918,
      "Ġbombastic": 8919,
      "Ġpitfalls": 8920,
      "Ġpitched": 8921,
      "Ġlilia": 8922,
      "Ġnuance": 8923,
      "Ġaspires": 8924,
      "Ġliberation": 8925,
      "Ġliberating": 8926,
      "Ġvampires": 8927,
      "Ġspotlight": 8928,
      "Ġpressed": 8929,
      "Ġstrangers": 8930,
      "Ġstrangeness": 8931,
      "Ġrecogniz": 8932,
      "Ġrecognize": 8933,
      "Ġidealism": 8934,
      "Ġdeparture": 8935,
      "Ġindians": 8936,
      "Ġreflection": 8937,
      "Ġdistinguish": 8938,
      "Ġambiguity": 8939,
      "Ġsignificantly": 8940,
      "Ġhandsomely": 8941,
      "Ġdetermine": 8942,
      "Ġsacrifice": 8943,
      "Ġunintentional": 8944,
      "pleasing": 8945,
      "Ġmulti": 8946,
      "Ġmassive": 8947,
      "Ġboost": 8948,
      "Ġboobs": 8949,
      "Ġbartlett": 8950,
      "Ġpadded": 8951,
      "Ġhayek": 8952,
      "Ġhurt": 8953,
      "Ġdonovan": 8954,
      "Ġgaghan": 8955,
      "Ġstinks": 8956,
      "Ġredeeming": 8957,
      "Ġchaos": 8958,
      "Ġcherry": 8959,
      "Ġchicken": 8960,
      "Ġyouthful": 8961,
      "Ġsuitably": 8962,
      "seeking": 8963,
      "thriller": 8964,
      "Ġvaguely": 8965,
      "Ġupdating": 8966,
      "Ġvietnamese": 8967,
      "Ġinterviews": 8968,
      "Ġthematically": 8969,
      "Ġmythic": 8970,
      "Ġexplosion": 8971,
      "Ġdisturb": 8972,
      "Ġ1950": 8973,
      "Ġ1984": 8974,
      "Ġjournalism": 8975,
      "Ġestablishes": 8976,
      "Ġestablished": 8977,
      "Ġinnovation": 8978,
      "Ġinnovative": 8979,
      "average": 8980,
      "Ġtorture": 8981,
      "Ġtempting": 8982,
      "Ġauteur": 8983,
      "Ġauteuil": 8984,
      "Ġthousand": 8985,
      "itzler": 8986,
      "Ġfoolish": 8987,
      "Ġmountain": 8988,
      "Ġwisdom": 8989,
      "Ġhuston": 8990,
      "Ġdutiful": 8991,
      "Ġdenied": 8992,
      "Ġtolerance": 8993,
      "Ġeerily": 8994,
      "Ġstroke": 8995,
      "Ġchuckle": 8996,
      "Ġchuckles": 8997,
[...]
